unsigned char quantised_cnn[] = {
  0x20, 0x00, 0x00, 0x00, 0x54, 0x46, 0x4c, 0x33, 0x00, 0x00, 0x00, 0x00,
  0x14, 0x00, 0x20, 0x00, 0x1c, 0x00, 0x18, 0x00, 0x14, 0x00, 0x10, 0x00,
  0x0c, 0x00, 0x00, 0x00, 0x08, 0x00, 0x04, 0x00, 0x14, 0x00, 0x00, 0x00,
  0x1c, 0x00, 0x00, 0x00, 0x94, 0x00, 0x00, 0x00, 0xec, 0x00, 0x00, 0x00,
  0xcc, 0x33, 0x00, 0x00, 0xdc, 0x33, 0x00, 0x00, 0x4c, 0x43, 0x00, 0x00,
  0x03, 0x00, 0x00, 0x00, 0x01, 0x00, 0x00, 0x00, 0x04, 0x00, 0x00, 0x00,
  0xe2, 0xca, 0xff, 0xff, 0x0c, 0x00, 0x00, 0x00, 0x1c, 0x00, 0x00, 0x00,
  0x38, 0x00, 0x00, 0x00, 0x0f, 0x00, 0x00, 0x00, 0x73, 0x65, 0x72, 0x76,
  0x69, 0x6e, 0x67, 0x5f, 0x64, 0x65, 0x66, 0x61, 0x75, 0x6c, 0x74, 0x00,
  0x01, 0x00, 0x00, 0x00, 0x04, 0x00, 0x00, 0x00, 0x88, 0xff, 0xff, 0xff,
  0x14, 0x00, 0x00, 0x00, 0x04, 0x00, 0x00, 0x00, 0x07, 0x00, 0x00, 0x00,
  0x64, 0x65, 0x6e, 0x73, 0x65, 0x5f, 0x37, 0x00, 0x01, 0x00, 0x00, 0x00,
  0x04, 0x00, 0x00, 0x00, 0xba, 0xcc, 0xff, 0xff, 0x04, 0x00, 0x00, 0x00,
  0x19, 0x00, 0x00, 0x00, 0x61, 0x76, 0x65, 0x72, 0x61, 0x67, 0x65, 0x5f,
  0x70, 0x6f, 0x6f, 0x6c, 0x69, 0x6e, 0x67, 0x32, 0x64, 0x5f, 0x31, 0x5f,
  0x69, 0x6e, 0x70, 0x75, 0x74, 0x00, 0x00, 0x00, 0x02, 0x00, 0x00, 0x00,
  0x34, 0x00, 0x00, 0x00, 0x04, 0x00, 0x00, 0x00, 0xdc, 0xff, 0xff, 0xff,
  0x17, 0x00, 0x00, 0x00, 0x04, 0x00, 0x00, 0x00, 0x13, 0x00, 0x00, 0x00,
  0x43, 0x4f, 0x4e, 0x56, 0x45, 0x52, 0x53, 0x49, 0x4f, 0x4e, 0x5f, 0x4d,
  0x45, 0x54, 0x41, 0x44, 0x41, 0x54, 0x41, 0x00, 0x08, 0x00, 0x0c, 0x00,
  0x08, 0x00, 0x04, 0x00, 0x08, 0x00, 0x00, 0x00, 0x16, 0x00, 0x00, 0x00,
  0x04, 0x00, 0x00, 0x00, 0x13, 0x00, 0x00, 0x00, 0x6d, 0x69, 0x6e, 0x5f,
  0x72, 0x75, 0x6e, 0x74, 0x69, 0x6d, 0x65, 0x5f, 0x76, 0x65, 0x72, 0x73,
  0x69, 0x6f, 0x6e, 0x00, 0x18, 0x00, 0x00, 0x00, 0xdc, 0x32, 0x00, 0x00,
  0xd4, 0x32, 0x00, 0x00, 0xbc, 0x32, 0x00, 0x00, 0xa0, 0x32, 0x00, 0x00,
  0x84, 0x32, 0x00, 0x00, 0x10, 0x32, 0x00, 0x00, 0xd8, 0x31, 0x00, 0x00,
  0x64, 0x31, 0x00, 0x00, 0x64, 0x03, 0x00, 0x00, 0x44, 0x03, 0x00, 0x00,
  0x34, 0x01, 0x00, 0x00, 0x04, 0x01, 0x00, 0x00, 0xd4, 0x00, 0x00, 0x00,
  0xcc, 0x00, 0x00, 0x00, 0xc4, 0x00, 0x00, 0x00, 0xbc, 0x00, 0x00, 0x00,
  0xb4, 0x00, 0x00, 0x00, 0xac, 0x00, 0x00, 0x00, 0xa4, 0x00, 0x00, 0x00,
  0x9c, 0x00, 0x00, 0x00, 0x94, 0x00, 0x00, 0x00, 0x8c, 0x00, 0x00, 0x00,
  0x6c, 0x00, 0x00, 0x00, 0x04, 0x00, 0x00, 0x00, 0xa2, 0xcd, 0xff, 0xff,
  0x04, 0x00, 0x00, 0x00, 0x58, 0x00, 0x00, 0x00, 0x0c, 0x00, 0x00, 0x00,
  0x08, 0x00, 0x0e, 0x00, 0x08, 0x00, 0x04, 0x00, 0x08, 0x00, 0x00, 0x00,
  0x10, 0x00, 0x00, 0x00, 0x28, 0x00, 0x00, 0x00, 0x00, 0x00, 0x06, 0x00,
  0x08, 0x00, 0x04, 0x00, 0x06, 0x00, 0x00, 0x00, 0x04, 0x00, 0x00, 0x00,
  0x01, 0x00, 0x00, 0x00, 0xeb, 0x03, 0x00, 0x00, 0x00, 0x00, 0x0a, 0x00,
  0x10, 0x00, 0x0c, 0x00, 0x08, 0x00, 0x04, 0x00, 0x0a, 0x00, 0x00, 0x00,
  0x02, 0x00, 0x00, 0x00, 0x02, 0x00, 0x00, 0x00, 0x04, 0x00, 0x00, 0x00,
  0x06, 0x00, 0x00, 0x00, 0x32, 0x2e, 0x31, 0x31, 0x2e, 0x30, 0x00, 0x00,
  0x06, 0xce, 0xff, 0xff, 0x04, 0x00, 0x00, 0x00, 0x10, 0x00, 0x00, 0x00,
  0x31, 0x2e, 0x31, 0x34, 0x2e, 0x30, 0x00, 0x00, 0x00, 0x00, 0x00, 0x00,
  0x00, 0x00, 0x00, 0x00, 0x68, 0xbf, 0xff, 0xff, 0x6c, 0xbf, 0xff, 0xff,
  0x70, 0xbf, 0xff, 0xff, 0x74, 0xbf, 0xff, 0xff, 0x78, 0xbf, 0xff, 0xff,
  0x7c, 0xbf, 0xff, 0xff, 0x80, 0xbf, 0xff, 0xff, 0x84, 0xbf, 0xff, 0xff,
  0x88, 0xbf, 0xff, 0xff, 0x46, 0xce, 0xff, 0xff, 0x04, 0x00, 0x00, 0x00,
  0x20, 0x00, 0x00, 0x00, 0xee, 0x7f, 0x33, 0x4d, 0x6f, 0x7f, 0x52, 0x78,
  0xa3, 0x5f, 0xf6, 0x81, 0x81, 0x4f, 0xd7, 0xbe, 0x7f, 0x81, 0xc7, 0x3a,
  0x81, 0x72, 0x2d, 0x41, 0xa6, 0x7f, 0x08, 0x7f, 0xd5, 0x11, 0x91, 0x7f,
  0x72, 0xce, 0xff, 0xff, 0x04, 0x00, 0x00, 0x00, 0x20, 0x00, 0x00, 0x00,
  0x6f, 0x7a, 0xff, 0xff, 0x39, 0xbc, 0xff, 0xff, 0x65, 0xf5, 0xff, 0xff,
  0xe5, 0xf9, 0xff, 0xff, 0x42, 0xfc, 0xff, 0xff, 0xe5, 0xe0, 0xff, 0xff,
  0x9a, 0xe2, 0xff, 0xff, 0xd9, 0x06, 0x00, 0x00, 0x9e, 0xce, 0xff, 0xff,
  0x04, 0x00, 0x00, 0x00, 0x00, 0x02, 0x00, 0x00, 0xf9, 0xf0, 0x0a, 0xf4,
  0xd8, 0x0d, 0x15, 0x0f, 0x01, 0x12, 0xfa, 0xee, 0xd1, 0x07, 0x0c, 0xe3,
  0xe8, 0xfa, 0x0a, 0xea, 0x3c, 0xea, 0xdc, 0xe8, 0x0c, 0xe5, 0xf8, 0x08,
  0x7f, 0xff, 0x0e, 0x47, 0xec, 0x18, 0x18, 0x03, 0xe5, 0xf7, 0x14, 0x1b,
  0x01, 0x19, 0xfe, 0xf7, 0x17, 0xff, 0xf9, 0xcc, 0x01, 0xf5, 0x1b, 0x05,
  0x76, 0xee, 0xef, 0x16, 0xfe, 0xfc, 0x0e, 0xff, 0x4a, 0x01, 0xef, 0x3b,
  0x19, 0xfe, 0x12, 0x04, 0x15, 0x1d, 0x1c, 0xfa, 0xfa, 0x12, 0xff, 0xfb,
  0x44, 0x02, 0x06, 0xcd, 0xdb, 0xe7, 0xff, 0x16, 0x4b, 0xdd, 0x01, 0x3a,
  0x00, 0x00, 0x00, 0xf5, 0xed, 0x11, 0x11, 0x5a, 0x1c, 0xfd, 0xf0, 0xfd,
  0x0c, 0x0a, 0x15, 0xf8, 0x00, 0xee, 0xf6, 0xf6, 0x46, 0xf6, 0x08, 0xfc,
  0xf0, 0xee, 0xf0, 0xf2, 0x2f, 0x0d, 0xf4, 0x23, 0xee, 0xfb, 0xfd, 0x04,
  0x35, 0xf5, 0x0f, 0x6d, 0xea, 0x14, 0xe1, 0x00, 0x8b, 0xde, 0x11, 0x8f,
  0xfd, 0x18, 0xfc, 0xfd, 0x8e, 0xf3, 0xe7, 0xc7, 0xf3, 0xfb, 0x02, 0x15,
  0xa1, 0xfd, 0x13, 0xd5, 0x03, 0x0f, 0xea, 0xf7, 0xb0, 0xe1, 0xe5, 0xa2,
  0xea, 0xf5, 0x12, 0x07, 0xdd, 0x08, 0xe9, 0xe3, 0xe7, 0x13, 0x1f, 0x18,
  0xb4, 0xfa, 0x00, 0xd0, 0x22, 0x05, 0x21, 0xec, 0x81, 0x04, 0xfa, 0xe9,
  0xff, 0x0a, 0x02, 0xee, 0xea, 0xe2, 0xea, 0xca, 0x03, 0xe2, 0xec, 0xfe,
  0xc0, 0x08, 0x1d, 0xd2, 0x0c, 0xe8, 0x1f, 0xfa, 0xd9, 0x20, 0x1e, 0x05,
  0xfb, 0x17, 0xe8, 0xe4, 0xaa, 0xec, 0x18, 0xcf, 0xc7, 0xe6, 0xe4, 0xfc,
  0xcf, 0xee, 0xeb, 0xe0, 0x24, 0xf2, 0xe6, 0x1f, 0xe6, 0x1b, 0x1c, 0xdd,
  0x08, 0xec, 0xf8, 0x0c, 0x31, 0x15, 0x0b, 0x02, 0xe1, 0x08, 0xfa, 0xe2,
  0xa1, 0x04, 0xef, 0xf5, 0x0e, 0x11, 0xe4, 0xe1, 0x9c, 0x1c, 0x1c, 0xd7,
  0xdf, 0xff, 0xf4, 0x06, 0xc5, 0xf8, 0xfc, 0xcb, 0xe8, 0xf9, 0x08, 0xeb,
  0xa4, 0x0d, 0x01, 0xd2, 0x08, 0xe8, 0x00, 0x07, 0xbd, 0xf4, 0xe7, 0xb1,
  0x01, 0xfd, 0x02, 0x04, 0xf2, 0x0b, 0xed, 0x9b, 0xf2, 0xed, 0x18, 0xf8,
  0xb0, 0xfa, 0x10, 0xba, 0x06, 0x01, 0x07, 0xf9, 0x81, 0xf8, 0x0a, 0xcc,
  0xfb, 0x0d, 0x10, 0xf9, 0xed, 0x16, 0x00, 0xc9, 0x0c, 0x0c, 0xf8, 0xec,
  0x10, 0xed, 0xe2, 0xaf, 0x0e, 0x19, 0xf6, 0xf6, 0xd6, 0x02, 0x18, 0xdc,
  0x15, 0xfd, 0x06, 0xec, 0xe0, 0x00, 0xf9, 0x0e, 0xea, 0xe9, 0x15, 0xfb,
  0xf1, 0x03, 0xfa, 0xc6, 0xf7, 0x05, 0xf5, 0xf3, 0xfd, 0xf9, 0x10, 0xa3,
  0x18, 0xff, 0xec, 0xff, 0x36, 0xfb, 0x13, 0xc9, 0x1c, 0x18, 0x01, 0xf4,
  0xed, 0xfc, 0xf9, 0x0f, 0x0e, 0x15, 0xfc, 0xf4, 0xfc, 0x20, 0x14, 0xf6,
  0xf2, 0xf3, 0xf2, 0x10, 0xec, 0xf4, 0xf9, 0xb7, 0xf6, 0x28, 0xe6, 0x0c,
  0xb8, 0x0e, 0x01, 0x00, 0xfe, 0xf4, 0xf5, 0xf0, 0xcf, 0x0c, 0xff, 0xb5,
  0x1b, 0x21, 0xf0, 0x1a, 0xb3, 0x22, 0x20, 0xbf, 0x0a, 0xed, 0xde, 0xf0,
  0x98, 0xfd, 0xf0, 0x99, 0x04, 0x14, 0x1d, 0x14, 0x54, 0xfb, 0xe1, 0x24,
  0x02, 0x10, 0x0a, 0xea, 0x09, 0x01, 0xef, 0x00, 0x10, 0x04, 0xff, 0x02,
  0xdc, 0xef, 0x01, 0xf6, 0xf9, 0xf1, 0x08, 0xea, 0xbd, 0x15, 0x1e, 0xb6,
  0xdc, 0xf2, 0x15, 0xfc, 0x21, 0xd7, 0xe7, 0x64, 0xe9, 0x09, 0x0a, 0x19,
  0xfe, 0xfb, 0xf2, 0x46, 0x1f, 0x15, 0x08, 0xff, 0x17, 0xff, 0x1a, 0x19,
  0x17, 0x0d, 0x0c, 0x13, 0xb8, 0x18, 0x13, 0xf4, 0xbe, 0xd6, 0x06, 0xdf,
  0x1e, 0xf3, 0xdc, 0x7f, 0x0c, 0xf4, 0xf0, 0x18, 0x06, 0xeb, 0xde, 0x5f,
  0x18, 0x01, 0x0a, 0x0c, 0xce, 0xeb, 0xfe, 0x3e, 0xeb, 0x08, 0xf6, 0xee,
  0xc7, 0x01, 0xfd, 0x0b, 0xaa, 0xd0, 0xff, 0xff, 0x04, 0x00, 0x00, 0x00,
  0x10, 0x00, 0x00, 0x00, 0xe5, 0xe7, 0xff, 0xff, 0x30, 0x03, 0x00, 0x00,
  0x94, 0xfb, 0xff, 0xff, 0x6e, 0xeb, 0xff, 0xff, 0xc6, 0xd0, 0xff, 0xff,
  0x04, 0x00, 0x00, 0x00, 0xf0, 0x2d, 0x00, 0x00, 0x0d, 0x0e, 0x06, 0xf1,
  0xfb, 0xfb, 0x23, 0x06, 0x02, 0x11, 0x12, 0x07, 0x01, 0x07, 0xe2, 0xf7,
  0xfe, 0xfa, 0x2c, 0xf6, 0x04, 0xfa, 0x08, 0xf8, 0x12, 0xf3, 0xf9, 0xf1,
  0x04, 0xf2, 0xfc, 0xec, 0xf9, 0x0c, 0x0f, 0xcf, 0xbd, 0xe5, 0xf9, 0xbe,
  0x88, 0xe4, 0x01, 0xc6, 0xed, 0xef, 0x16, 0xf9, 0xcd, 0xe5, 0x2a, 0x22,
  0xf8, 0x1f, 0x3a, 0x10, 0xf6, 0x12, 0x06, 0x19, 0x02, 0x12, 0x05, 0xca,
  0xfa, 0x15, 0x0f, 0xc2, 0xb8, 0x0f, 0x13, 0xd1, 0xf8, 0x15, 0x02, 0x8e,
  0x03, 0x00, 0x18, 0xb6, 0x00, 0x17, 0x0a, 0x0e, 0xfb, 0xf2, 0x0d, 0x09,
  0xfd, 0xf0, 0x19, 0xff, 0xf6, 0x02, 0xf7, 0x04, 0xeb, 0x06, 0x02, 0x03,
  0x03, 0x08, 0x18, 0x08, 0xf6, 0xf4, 0x02, 0x18, 0xfb, 0xf6, 0xdb, 0xd5,
  0xe7, 0xf4, 0xf7, 0xde, 0xea, 0xef, 0xf6, 0xef, 0xa0, 0xf3, 0xff, 0xc0,
  0xaa, 0x1b, 0x0f, 0xc9, 0xfe, 0x2e, 0x13, 0xe9, 0x07, 0x0f, 0x18, 0x1d,
  0xf7, 0x00, 0x18, 0x19, 0x06, 0x16, 0xdd, 0x1c, 0x03, 0x11, 0x00, 0x0e,
  0xcb, 0x06, 0x09, 0xe7, 0xa3, 0x15, 0x0d, 0xf6, 0xf6, 0x18, 0x15, 0xdd,
  0x08, 0x15, 0x1b, 0xd6, 0xf6, 0x11, 0x04, 0x0e, 0xfe, 0xff, 0xfa, 0x05,
  0xf7, 0xf4, 0x11, 0xff, 0xfb, 0x13, 0x18, 0x01, 0xfe, 0x07, 0xfa, 0xee,
  0xea, 0x0b, 0x00, 0xcd, 0xbf, 0x08, 0xff, 0xc6, 0xc0, 0xf2, 0xe1, 0xbd,
  0x95, 0xf4, 0xf1, 0xcf, 0xe2, 0x03, 0x04, 0xfc, 0xc4, 0xf5, 0xfa, 0xf3,
  0xf1, 0x0c, 0xff, 0xee, 0x07, 0x21, 0x11, 0x00, 0xfd, 0xfd, 0x13, 0xe8,
  0xf5, 0x0b, 0x04, 0x1a, 0x04, 0x01, 0x60, 0x0e, 0xfa, 0xfe, 0xfb, 0x05,
  0xaa, 0x0c, 0x07, 0x0a, 0xc9, 0x12, 0x02, 0x05, 0x00, 0x1a, 0x0a, 0xe4,
  0xf1, 0x06, 0x08, 0xd3, 0xe1, 0x00, 0x0c, 0xee, 0x05, 0xef, 0xf8, 0x09,
  0xf9, 0x0a, 0x06, 0x06, 0xee, 0x03, 0x1b, 0xf5, 0xfd, 0x00, 0x14, 0xfc,
  0xd6, 0x01, 0x0e, 0xd2, 0x90, 0x04, 0xf2, 0xca, 0xad, 0xf7, 0xf9, 0xce,
  0x94, 0x04, 0xf4, 0xe3, 0xc4, 0x05, 0xfb, 0xdb, 0xf0, 0xfb, 0x04, 0xf2,
  0x09, 0x02, 0xfd, 0xea, 0xf6, 0xea, 0x01, 0xf8, 0xfc, 0x0d, 0xe7, 0xfc,
  0x02, 0x18, 0x02, 0xfb, 0xff, 0x24, 0x13, 0x0d, 0x0a, 0x19, 0x23, 0x0e,
  0xbe, 0x0c, 0x07, 0x01, 0xf5, 0x0c, 0xf5, 0x00, 0x03, 0x15, 0xfa, 0x12,
  0xe6, 0x06, 0x01, 0xd2, 0xbc, 0x14, 0x0c, 0xba, 0x0d, 0x03, 0xfe, 0xf2,
  0xdc, 0x17, 0x21, 0xf8, 0x01, 0x09, 0x1d, 0x02, 0xe7, 0x03, 0x32, 0x0a,
  0xcb, 0x0b, 0x12, 0xf4, 0xa9, 0x03, 0xf3, 0xc4, 0xde, 0xfd, 0xfd, 0xde,
  0xb2, 0xfa, 0x00, 0xff, 0xdf, 0x01, 0xff, 0x0d, 0x01, 0xfc, 0x01, 0x13,
  0xfb, 0xfc, 0x02, 0x00, 0x02, 0xf8, 0x1a, 0xf0, 0xf8, 0x05, 0xe6, 0xd5,
  0x02, 0xfd, 0xfe, 0xf4, 0x01, 0x0e, 0x03, 0xed, 0xb9, 0xf5, 0x01, 0x08,
  0xf3, 0x08, 0x06, 0x13, 0xfd, 0x00, 0x01, 0x05, 0xf5, 0x05, 0x04, 0x22,
  0xe2, 0x06, 0x1d, 0x20, 0xd0, 0x10, 0x36, 0xc2, 0xfd, 0xf9, 0x00, 0xf8,
  0xb7, 0xf4, 0xed, 0xfe, 0x00, 0x01, 0xfb, 0xff, 0xec, 0x0d, 0x03, 0xfe,
  0xd1, 0xfe, 0x11, 0xf7, 0xe8, 0xf8, 0xfa, 0xe6, 0xe1, 0x02, 0xfd, 0xe0,
  0xd2, 0xfe, 0xfe, 0x25, 0x0c, 0x03, 0x01, 0x32, 0xfb, 0xf2, 0xf2, 0x47,
  0x09, 0xea, 0xf7, 0x37, 0x08, 0xfa, 0x10, 0x0d, 0xfa, 0x0a, 0x0a, 0xfe,
  0x16, 0x05, 0x04, 0x2a, 0xf0, 0x01, 0x04, 0x2b, 0x08, 0xfb, 0xef, 0x32,
  0xfb, 0xf6, 0xf4, 0x3a, 0x0a, 0xf6, 0x01, 0x26, 0xfe, 0x00, 0xf7, 0x1c,
  0xce, 0x16, 0x12, 0x08, 0xe3, 0x22, 0x37, 0x02, 0x06, 0xfa, 0xf7, 0xf6,
  0xd6, 0xfd, 0x03, 0xf9, 0xf1, 0x09, 0xfe, 0xfa, 0xe6, 0x07, 0x03, 0x0e,
  0xc8, 0xfc, 0xf4, 0x0a, 0xc9, 0xf1, 0xfc, 0xf1, 0xf5, 0xf7, 0x01, 0xf5,
  0xf3, 0x08, 0xff, 0x11, 0xfc, 0xfa, 0xf1, 0x3a, 0xf9, 0xf5, 0xf7, 0x33,
  0x02, 0xf0, 0xfe, 0x46, 0x04, 0x0f, 0x05, 0x0c, 0xf5, 0xfd, 0xfb, 0x07,
  0x1e, 0xfb, 0x0d, 0x1a, 0x03, 0x08, 0x04, 0x12, 0xfb, 0xf5, 0x08, 0x47,
  0xe7, 0xe9, 0xed, 0x43, 0xf2, 0x04, 0xf2, 0x55, 0xf7, 0x06, 0xf2, 0x1e,
  0xa8, 0x1c, 0xfa, 0x11, 0xcf, 0x18, 0x11, 0x1c, 0x0c, 0x02, 0xfc, 0xfc,
  0xe0, 0x05, 0x06, 0xf8, 0xef, 0xfb, 0xf2, 0xf2, 0xcc, 0x07, 0xf6, 0xf6,
  0xd2, 0xfc, 0x01, 0xf5, 0xe2, 0x01, 0x02, 0x0a, 0x0f, 0xfa, 0x00, 0x0a,
  0x00, 0xfb, 0x02, 0x16, 0x04, 0x03, 0x07, 0x34, 0x0b, 0x06, 0xf6, 0x42,
  0x19, 0xfb, 0xfb, 0x38, 0x05, 0x12, 0x07, 0x0e, 0x06, 0x07, 0x04, 0x07,
  0x36, 0x0d, 0xfd, 0xf7, 0x00, 0xf8, 0xfa, 0x08, 0xfc, 0xfa, 0x0b, 0x0b,
  0xef, 0xf6, 0xe4, 0x3c, 0x0a, 0x0c, 0xe0, 0x45, 0xc3, 0xfc, 0xf5, 0x26,
  0x9c, 0x1a, 0xee, 0x24, 0xd0, 0x32, 0xf4, 0x2a, 0xe0, 0x0e, 0xff, 0xf7,
  0xd6, 0x01, 0xff, 0xf5, 0xdc, 0xfa, 0x01, 0xfc, 0xdf, 0xf8, 0x05, 0x00,
  0xf7, 0xfa, 0xf7, 0x02, 0x06, 0x04, 0x01, 0xf6, 0xff, 0xf4, 0xf0, 0x03,
  0xf3, 0xfd, 0x00, 0x15, 0xf3, 0x04, 0xfb, 0x0f, 0xfd, 0x02, 0x13, 0x26,
  0x10, 0xff, 0x07, 0xff, 0x09, 0xf5, 0x01, 0x2c, 0x04, 0x04, 0xfa, 0x1c,
  0x51, 0x00, 0xe5, 0x18, 0xfc, 0xff, 0xf3, 0x07, 0xfc, 0xf9, 0xfb, 0x10,
  0xfc, 0xeb, 0xe6, 0xfc, 0x08, 0x0f, 0xfd, 0x00, 0xcb, 0xfa, 0xfc, 0xfc,
  0x84, 0x06, 0xf8, 0xfe, 0xa3, 0x1b, 0xfa, 0x07, 0xc5, 0x07, 0x00, 0xe4,
  0xc2, 0x03, 0x0a, 0xda, 0xbf, 0xfd, 0x04, 0xf6, 0xf8, 0x09, 0xf4, 0xfe,
  0x09, 0x07, 0x0b, 0x05, 0xf8, 0x08, 0x12, 0x02, 0xfc, 0xf0, 0x03, 0x07,
  0xf4, 0x0f, 0xfc, 0x06, 0xfb, 0x06, 0xf3, 0x15, 0xf7, 0x07, 0x10, 0xec,
  0x01, 0xfd, 0x06, 0xf7, 0xf8, 0xf6, 0xf5, 0xba, 0xfd, 0xf3, 0xf5, 0x13,
  0x59, 0xf2, 0xe9, 0x08, 0x00, 0xf3, 0x06, 0x2e, 0xfa, 0xfc, 0x01, 0x28,
  0x05, 0xf9, 0xf9, 0x29, 0x15, 0xec, 0xf3, 0x20, 0xed, 0xe5, 0xe2, 0x21,
  0xa6, 0x11, 0x16, 0x10, 0xc2, 0x13, 0x06, 0x05, 0xaa, 0xfb, 0x10, 0xe0,
  0xf3, 0x02, 0x0a, 0xe7, 0xe0, 0xfa, 0x0f, 0xee, 0x04, 0x06, 0x04, 0x07,
  0x11, 0x05, 0x0a, 0xf6, 0xfc, 0xe7, 0x02, 0xfe, 0x00, 0xf6, 0xf5, 0x00,
  0xff, 0xf7, 0xff, 0xfc, 0x0d, 0xf4, 0x06, 0x04, 0xf6, 0x00, 0x09, 0x08,
  0x02, 0xf3, 0xf8, 0xeb, 0x0c, 0xff, 0xf1, 0x02, 0xfe, 0xe5, 0xed, 0x09,
  0x15, 0xe5, 0xf6, 0x03, 0xfe, 0xde, 0xf3, 0x07, 0x00, 0xea, 0xff, 0xe1,
  0x1c, 0xf2, 0xe9, 0x03, 0xfe, 0x05, 0x00, 0xf9, 0x07, 0x05, 0x00, 0x28,
  0x02, 0x10, 0x06, 0x0c, 0xca, 0x01, 0x1d, 0x0a, 0xcc, 0x01, 0x05, 0xe3,
  0x11, 0x0d, 0x09, 0xcb, 0xfa, 0x0a, 0x0d, 0xfe, 0x38, 0x07, 0x06, 0xfe,
  0x03, 0x0b, 0x06, 0x07, 0xfc, 0xfa, 0x00, 0x02, 0x19, 0x02, 0x0c, 0xf5,
  0x0a, 0xfd, 0xfb, 0x0b, 0x02, 0x02, 0xf9, 0x03, 0x08, 0x04, 0xf1, 0xff,
  0x05, 0x08, 0xec, 0xf3, 0x00, 0x0c, 0xf8, 0x06, 0x07, 0xdf, 0xeb, 0x06,
  0x04, 0xf6, 0xf4, 0x04, 0x03, 0xed, 0x00, 0xf9, 0x00, 0x06, 0xfa, 0xfe,
  0x01, 0xfb, 0x09, 0xf5, 0xfc, 0x07, 0xf5, 0xfb, 0x05, 0x05, 0xfd, 0xdd,
  0x00, 0x07, 0x0a, 0xf1, 0xf7, 0x08, 0x02, 0x0b, 0xf8, 0xff, 0x0d, 0xec,
  0x04, 0x0c, 0x09, 0xe6, 0x07, 0x09, 0x03, 0xf6, 0x07, 0xf7, 0x01, 0x01,
  0x00, 0x03, 0x09, 0x06, 0x15, 0x09, 0x02, 0xff, 0x23, 0xff, 0x05, 0xe6,
  0x12, 0x00, 0x06, 0xe9, 0x1d, 0xf7, 0xfe, 0xf1, 0xfd, 0x02, 0xf4, 0xf3,
  0x08, 0x09, 0xf7, 0x01, 0xfd, 0x05, 0x27, 0xf9, 0x07, 0x09, 0x23, 0x14,
  0x01, 0x15, 0x27, 0x00, 0x0c, 0x03, 0x1b, 0x06, 0x07, 0xfc, 0x12, 0xf4,
  0x1a, 0xff, 0x03, 0xfd, 0x08, 0xfe, 0xfa, 0x0b, 0x06, 0xfe, 0x00, 0x04,
  0xf8, 0x0b, 0x02, 0xf4, 0x1d, 0x0e, 0xff, 0xf0, 0x2b, 0x09, 0xf7, 0xfd,
  0xfc, 0x06, 0x0e, 0x02, 0xfc, 0xf1, 0x02, 0x02, 0x10, 0x04, 0x0a, 0xff,
  0x0b, 0xfa, 0x03, 0x04, 0x1c, 0xf6, 0x00, 0x02, 0x2d, 0x06, 0x05, 0x04,
  0x11, 0xff, 0x10, 0x05, 0x12, 0xf5, 0x0b, 0x00, 0x09, 0xf9, 0xf8, 0xee,
  0x04, 0xff, 0x14, 0x1e, 0x09, 0xee, 0x33, 0xfa, 0xfe, 0x01, 0x2c, 0x15,
  0xfc, 0x06, 0x4b, 0x12, 0xf9, 0xf1, 0x43, 0xf9, 0x09, 0xf2, 0x33, 0xf3,
  0x05, 0xf7, 0x22, 0xfd, 0xf9, 0x09, 0xf9, 0x07, 0x18, 0x00, 0xff, 0x00,
  0x1c, 0x0a, 0xff, 0x10, 0x35, 0x07, 0x0a, 0xca, 0x01, 0x01, 0x0e, 0xf8,
  0xf8, 0xfe, 0x05, 0x0d, 0xfc, 0x02, 0x02, 0x06, 0xf5, 0xfb, 0xfe, 0xfa,
  0xf6, 0xfe, 0x0e, 0xfb, 0x0a, 0xfd, 0xf8, 0xf7, 0x12, 0x05, 0xf7, 0xef,
  0xfc, 0xfb, 0x01, 0x02, 0x02, 0xf9, 0x0c, 0xf7, 0xcf, 0xfd, 0x04, 0xed,
  0xa8, 0xed, 0x04, 0xf3, 0xf6, 0xfe, 0x02, 0xfa, 0xec, 0xf7, 0x0e, 0x17,
  0x03, 0x08, 0x17, 0x0e, 0x03, 0x13, 0x0e, 0x07, 0xfc, 0x09, 0x01, 0xf2,
  0xfb, 0x10, 0x07, 0xf5, 0xe1, 0x11, 0x0f, 0xf8, 0xee, 0x02, 0x06, 0xde,
  0xfc, 0xfd, 0x07, 0xde, 0xfa, 0x0a, 0x13, 0x02, 0x00, 0x00, 0x0f, 0x0f,
  0x00, 0xf0, 0x10, 0x06, 0xf2, 0xf7, 0x04, 0xfe, 0xef, 0xf9, 0xfe, 0x09,
  0x08, 0x0d, 0x14, 0x0f, 0xfb, 0xfb, 0xf8, 0x09, 0xfe, 0xf2, 0xf8, 0xec,
  0xe6, 0x00, 0xf3, 0xf7, 0xf0, 0xf2, 0xff, 0x04, 0xc9, 0xf6, 0x08, 0xe5,
  0xd1, 0x18, 0x00, 0xe7, 0xf2, 0x1b, 0x06, 0x05, 0xff, 0x0a, 0x1c, 0x0e,
  0x08, 0xf8, 0x06, 0x09, 0x08, 0x13, 0xf2, 0x03, 0xfa, 0x06, 0xf8, 0x0d,
  0xe0, 0xff, 0x0f, 0x00, 0xcf, 0x09, 0xfc, 0xff, 0xf9, 0x0c, 0x01, 0xfa,
  0x09, 0x0d, 0x0b, 0xe9, 0xf7, 0x07, 0x03, 0x0e, 0x0e, 0xf6, 0xfb, 0x0e,
  0x07, 0xf7, 0x09, 0x03, 0x05, 0xfd, 0x04, 0x01, 0x0d, 0xfc, 0xf5, 0xfc,
  0xf4, 0x09, 0x03, 0xf1, 0xcb, 0x0b, 0x07, 0xed, 0xe1, 0x00, 0xf4, 0xe1,
  0xc7, 0x00, 0xfd, 0xee, 0xf8, 0x02, 0x03, 0xff, 0xdc, 0xfd, 0x03, 0x05,
  0xf0, 0x17, 0x00, 0x03, 0x01, 0x13, 0xfd, 0x00, 0x03, 0xfc, 0x0c, 0x01,
  0xfa, 0x06, 0x06, 0x04, 0x05, 0x00, 0x33, 0x01, 0x03, 0x01, 0xfd, 0x0b,
  0xe0, 0x08, 0x02, 0x07, 0xdc, 0x08, 0xfe, 0x0f, 0xf3, 0x02, 0x0e, 0xf5,
  0xf2, 0x00, 0x02, 0xe8, 0xec, 0xfc, 0x0b, 0xec, 0xff, 0xed, 0xff, 0xfe,
  0xfe, 0xff, 0x08, 0xfc, 0xf8, 0x07, 0x00, 0xfc, 0x01, 0xff, 0xff, 0xf8,
  0xe4, 0x06, 0x06, 0xf4, 0xc8, 0x01, 0xfa, 0xef, 0xc8, 0x05, 0xf4, 0xfa,
  0xcb, 0xf8, 0xf3, 0xf5, 0xe4, 0x03, 0xfc, 0xff, 0xf5, 0xf9, 0x07, 0x02,
  0xf8, 0xf8, 0xf9, 0xf9, 0xfc, 0x01, 0x05, 0x01, 0x08, 0xf9, 0xf4, 0x05,
  0xfc, 0x03, 0x04, 0x00, 0xff, 0x03, 0x0b, 0x13, 0x0c, 0x0f, 0xfd, 0xf7,
  0xee, 0x00, 0x01, 0x05, 0x00, 0x0b, 0xfa, 0x09, 0x00, 0x0e, 0xff, 0x12,
  0xe9, 0xfe, 0xf9, 0xed, 0xdd, 0x08, 0x11, 0xd4, 0x0e, 0xfc, 0x01, 0xf5,
  0xfa, 0x0e, 0x12, 0x06, 0xfc, 0xff, 0xff, 0xf5, 0xfd, 0x03, 0x13, 0x07,
  0xdb, 0x03, 0x04, 0xf6, 0xce, 0x03, 0x03, 0xeb, 0xee, 0x08, 0x09, 0xfb,
  0xe8, 0x00, 0xf6, 0xf7, 0xe5, 0x06, 0xf7, 0xff, 0x01, 0xfe, 0xfd, 0x0c,
  0x01, 0xf6, 0xf8, 0x08, 0xfc, 0x05, 0x07, 0xfa, 0x04, 0xfc, 0xf3, 0x01,
  0xf6, 0x00, 0xfb, 0xfa, 0x02, 0x02, 0xfa, 0x04, 0xf4, 0xf6, 0xf4, 0xff,
  0xed, 0xfd, 0x0b, 0x06, 0xfb, 0x07, 0x0c, 0xfe, 0xfd, 0x0a, 0xf8, 0x17,
  0xe3, 0x07, 0x09, 0x06, 0xf2, 0x0e, 0x14, 0xf0, 0x01, 0xf5, 0x08, 0x04,
  0xdc, 0xff, 0x00, 0xff, 0x03, 0xfb, 0xf5, 0xf8, 0xf2, 0x0c, 0x01, 0xfd,
  0xdc, 0xff, 0x0d, 0x04, 0xf4, 0x09, 0xfb, 0xfc, 0xf7, 0xfe, 0x04, 0xf1,
  0xe0, 0x06, 0xf7, 0x14, 0x05, 0xf8, 0xf5, 0x0f, 0xf4, 0xf9, 0xf3, 0x1b,
  0x0c, 0x04, 0xfa, 0x0e, 0xfd, 0xf7, 0x00, 0x08, 0xff, 0xfc, 0x05, 0xf9,
  0x0a, 0x01, 0xfc, 0x1b, 0xf3, 0x0b, 0xfd, 0x28, 0xf8, 0x04, 0xf5, 0x1d,
  0x02, 0xf1, 0x04, 0x15, 0x05, 0xf5, 0x03, 0x14, 0x00, 0x0b, 0xed, 0x10,
  0xd9, 0x09, 0x03, 0x0f, 0xef, 0x14, 0x16, 0xf8, 0xfd, 0xfe, 0x03, 0xfe,
  0xdd, 0xf8, 0x0a, 0xfb, 0xf5, 0x03, 0xf6, 0xfb, 0xea, 0x07, 0xf7, 0x0c,
  0xd6, 0x04, 0xfb, 0x03, 0xda, 0x03, 0x02, 0x04, 0x04, 0x00, 0x0b, 0xff,
  0xff, 0x03, 0x07, 0x12, 0x0c, 0x0a, 0xff, 0x1c, 0xff, 0x07, 0xeb, 0x24,
  0x00, 0xfd, 0x04, 0x1f, 0xf4, 0xfe, 0x03, 0x00, 0x09, 0xfe, 0x00, 0x03,
  0x10, 0x07, 0x04, 0x11, 0xf5, 0x0b, 0xfa, 0x08, 0xfa, 0xfe, 0x07, 0x1b,
  0xee, 0xec, 0xf6, 0x25, 0xf8, 0x0b, 0xf9, 0x32, 0xf4, 0x08, 0xf3, 0x08,
  0xdb, 0x15, 0x00, 0x0a, 0xd5, 0x06, 0x08, 0x03, 0x0d, 0xff, 0x01, 0xf8,
  0xf8, 0x07, 0xfe, 0xfc, 0xf5, 0x08, 0xf8, 0x08, 0xe7, 0xfa, 0x01, 0x02,
  0xe3, 0xf9, 0x06, 0xf1, 0xe9, 0x04, 0x04, 0x0a, 0x08, 0x01, 0xfe, 0x08,
  0x0d, 0xfd, 0xf9, 0x03, 0xf1, 0xfb, 0x01, 0x13, 0x0b, 0xf9, 0xf9, 0x1b,
  0x09, 0x02, 0xfb, 0x2d, 0x00, 0x01, 0x07, 0x10, 0xfa, 0xff, 0x05, 0xfe,
  0x19, 0x01, 0xf6, 0xfb, 0x0b, 0x03, 0xf9, 0xf9, 0x00, 0xf6, 0xfb, 0x0f,
  0x01, 0xef, 0xe6, 0x1b, 0x01, 0x02, 0xf7, 0x28, 0xd5, 0xf4, 0xfb, 0x12,
  0xd8, 0xfe, 0xfc, 0x0a, 0xe9, 0x1c, 0xf3, 0x18, 0xf2, 0x01, 0x06, 0xfc,
  0xf1, 0xf8, 0x05, 0x03, 0xec, 0x00, 0xf8, 0x05, 0xe9, 0x09, 0xf9, 0xf8,
  0x01, 0x06, 0xf9, 0x00, 0x08, 0x09, 0xfe, 0xfd, 0x03, 0x01, 0xfd, 0xff,
  0xf8, 0xfa, 0x0b, 0x16, 0xfe, 0x0a, 0x02, 0x14, 0xf7, 0x0c, 0xfc, 0x05,
  0x0e, 0x0a, 0x04, 0x01, 0x05, 0xf7, 0x0a, 0x04, 0x02, 0x03, 0xfe, 0x11,
  0x3a, 0xfb, 0xf2, 0x0e, 0xfb, 0xf9, 0xf3, 0x12, 0x02, 0xf4, 0x06, 0x11,
  0x03, 0xf4, 0xfb, 0x01, 0xf8, 0xfa, 0x05, 0x02, 0xe4, 0xff, 0xf5, 0xff,
  0xca, 0x01, 0xf3, 0xfc, 0xcb, 0x06, 0x01, 0x08, 0xd2, 0xfe, 0x05, 0xf8,
  0xda, 0xf7, 0x0d, 0xf3, 0xd5, 0x09, 0xf9, 0x05, 0x01, 0xf9, 0x03, 0x06,
  0x0d, 0x0a, 0xfd, 0x07, 0x02, 0xf9, 0xff, 0x02, 0xfb, 0xf3, 0x01, 0x02,
  0xf5, 0x08, 0xf5, 0xfb, 0xfd, 0xfd, 0xf5, 0x08, 0x08, 0x0a, 0x02, 0xf7,
  0xf9, 0xfe, 0xfa, 0xff, 0xff, 0xf9, 0xf2, 0xde, 0x03, 0xfb, 0x02, 0x10,
  0x28, 0xff, 0xfc, 0x01, 0x0b, 0xf6, 0x01, 0x0f, 0x03, 0xf7, 0xf8, 0x0c,
  0x0c, 0x02, 0xf5, 0x06, 0x0e, 0xf1, 0xee, 0x07, 0xfc, 0xfd, 0xfc, 0x10,
  0xd1, 0xfd, 0x0c, 0x0d, 0xdb, 0xfe, 0xfd, 0x04, 0xd7, 0xfd, 0x07, 0xef,
  0xed, 0x02, 0x06, 0xf5, 0xf5, 0x09, 0x0e, 0xf4, 0x01, 0x01, 0x0b, 0xfe,
  0x0a, 0x08, 0xfb, 0x01, 0x0b, 0xf2, 0x06, 0xfc, 0xff, 0xf5, 0x00, 0xf8,
  0x06, 0xf3, 0x03, 0xf7, 0x09, 0x03, 0x08, 0x09, 0xfc, 0xf7, 0x09, 0x00,
  0xfa, 0xf4, 0xf2, 0x00, 0x00, 0x0a, 0xf3, 0xf4, 0xfa, 0xf8, 0xf5, 0x0a,
  0x16, 0xfb, 0x00, 0x08, 0x0b, 0xf2, 0xf0, 0x09, 0xfd, 0xf7, 0x07, 0xf5,
  0x16, 0xf2, 0xf2, 0xff, 0xf8, 0xfd, 0xfb, 0x09, 0xfb, 0x03, 0xfc, 0x10,
  0x02, 0x06, 0xff, 0x01, 0xde, 0x00, 0x10, 0x05, 0xe0, 0xf8, 0xfb, 0xf0,
  0x03, 0x06, 0xff, 0xe0, 0x06, 0xf9, 0x05, 0xf2, 0x18, 0xf7, 0x07, 0xfd,
  0xfe, 0xf7, 0xfa, 0x0a, 0x04, 0x03, 0xfb, 0xfb, 0x05, 0xfb, 0x0c, 0xfb,
  0x0b, 0x00, 0xf7, 0x06, 0x00, 0x03, 0x0a, 0xfe, 0x0a, 0xf2, 0xf1, 0x08,
  0x08, 0xff, 0xef, 0xff, 0xfd, 0xfd, 0xf3, 0x0d, 0x06, 0xf6, 0xe9, 0x0c,
  0xfd, 0xf3, 0xee, 0x02, 0xfb, 0x05, 0xf7, 0xf9, 0x03, 0x09, 0xfb, 0xf9,
  0xfb, 0x02, 0xff, 0xef, 0x02, 0x04, 0x02, 0xf6, 0x06, 0x0a, 0xf3, 0xf8,
  0xff, 0x0d, 0xfe, 0xfd, 0x02, 0x06, 0xfd, 0x01, 0x05, 0xfb, 0xfa, 0xf2,
  0xfc, 0x02, 0x00, 0xff, 0x0b, 0x04, 0x0c, 0xf6, 0xfe, 0xf9, 0x07, 0x04,
  0xf9, 0xfd, 0x0a, 0x00, 0x09, 0xff, 0xf3, 0x06, 0x10, 0x01, 0x03, 0xfe,
  0x06, 0xf6, 0x08, 0xfb, 0x0c, 0xfe, 0xf6, 0xf0, 0xfd, 0x03, 0xf9, 0x01,
  0x07, 0xfd, 0x04, 0x01, 0xf4, 0x01, 0x0f, 0xf9, 0xfd, 0xf7, 0x10, 0x12,
  0xfd, 0xfc, 0x22, 0x00, 0x0a, 0xfe, 0x08, 0x02, 0x0a, 0xfa, 0x02, 0x04,
  0x0b, 0xf4, 0x05, 0x09, 0xf8, 0xfe, 0xf9, 0x0b, 0x01, 0x01, 0xf8, 0xfc,
  0x04, 0x0e, 0xf8, 0xf6, 0x1e, 0xfd, 0xf6, 0xf3, 0x0b, 0x09, 0x06, 0xee,
  0xfc, 0xff, 0x03, 0xff, 0x0c, 0x05, 0x00, 0xf9, 0x0d, 0xfe, 0x06, 0x08,
  0x03, 0xfb, 0xfb, 0xf6, 0x14, 0xf8, 0x06, 0x00, 0x1d, 0x00, 0x00, 0xfa,
  0x17, 0xf3, 0xfd, 0xfc, 0xfe, 0x07, 0x03, 0xf6, 0xfd, 0xfb, 0xf9, 0xeb,
  0x01, 0xfa, 0x06, 0x04, 0xf9, 0xfa, 0x1a, 0x05, 0x03, 0xf1, 0x23, 0xfe,
  0xf7, 0xf5, 0x38, 0x03, 0x07, 0xfd, 0x1d, 0xfb, 0x06, 0x02, 0x27, 0xfb,
  0xfc, 0xfb, 0x07, 0xf6, 0x02, 0x09, 0xf4, 0xfb, 0x08, 0x06, 0xf5, 0x00,
  0x10, 0x00, 0xfc, 0x02, 0x10, 0x05, 0x0c, 0xf2, 0xff, 0xfd, 0x0d, 0xf4,
  0x0a, 0xf3, 0x15, 0x10, 0x00, 0x08, 0x13, 0xff, 0x01, 0xfb, 0xed, 0x07,
  0xef, 0xee, 0x1c, 0xff, 0xfc, 0x02, 0xfb, 0xf0, 0xff, 0xfd, 0xfb, 0xf1,
  0xec, 0xf5, 0xf7, 0xf8, 0xf1, 0x06, 0x0b, 0xd7, 0xb6, 0xe1, 0x01, 0xc7,
  0x81, 0xef, 0xf7, 0xcf, 0xf0, 0x01, 0x05, 0x00, 0xd3, 0xf3, 0x2c, 0x18,
  0xfe, 0x18, 0x2d, 0x17, 0xf9, 0x1f, 0x13, 0x12, 0xf8, 0x1c, 0x10, 0xbe,
  0x04, 0x14, 0x13, 0xc8, 0xb7, 0x17, 0x13, 0xdf, 0xf2, 0x12, 0x06, 0x9c,
  0x00, 0x14, 0x16, 0xc4, 0x05, 0x09, 0x0e, 0x03, 0xf6, 0xfa, 0x07, 0x1c,
  0x04, 0xeb, 0x22, 0x06, 0xf8, 0xfc, 0xf2, 0x03, 0xf8, 0x06, 0xfd, 0xff,
  0xf8, 0xfc, 0x1c, 0x14, 0x09, 0x01, 0xf6, 0x18, 0xf9, 0xfe, 0xda, 0xd3,
  0xde, 0xfd, 0xfc, 0xe8, 0xf2, 0xf4, 0xf8, 0xeb, 0xa4, 0xe6, 0x0e, 0xd8,
  0xb4, 0x1d, 0x05, 0xd8, 0x03, 0x2a, 0x05, 0xfa, 0xf8, 0x15, 0x15, 0x0b,
  0x08, 0xfd, 0x15, 0x18, 0xf9, 0x09, 0xed, 0x14, 0x03, 0x12, 0x0d, 0x00,
  0xcb, 0x1b, 0x07, 0xfa, 0xa8, 0x14, 0x0b, 0x0d, 0xfa, 0x27, 0x16, 0xe7,
  0xfc, 0x1c, 0x1f, 0xcb, 0xf2, 0x15, 0x12, 0xfd, 0xfa, 0xfe, 0xf0, 0x0b,
  0x04, 0xff, 0x1d, 0x0e, 0xfe, 0x11, 0x11, 0x00, 0xf9, 0x04, 0xf4, 0xee,
  0xf3, 0x13, 0x03, 0xd3, 0xbd, 0x0a, 0xf3, 0xca, 0xbf, 0xfd, 0xde, 0xbe,
  0xa4, 0xef, 0xf8, 0xd0, 0xdd, 0x00, 0x09, 0x01, 0xbc, 0x06, 0x04, 0xe9,
  0xf5, 0x15, 0x05, 0xf5, 0x04, 0x30, 0x02, 0xfe, 0xfe, 0xfb, 0x13, 0xed,
  0x03, 0x0c, 0xfd, 0x11, 0xf7, 0x01, 0x62, 0x11, 0x07, 0x0b, 0xf4, 0x0f,
  0xb4, 0x0f, 0xfe, 0x06, 0xc7, 0x0a, 0x00, 0x0f, 0xfe, 0x23, 0x06, 0xe4,
  0xef, 0x15, 0x0f, 0xda, 0xd9, 0x09, 0x10, 0xe6, 0x02, 0xf7, 0xf7, 0x06,
  0xff, 0x10, 0xfa, 0x05, 0xfa, 0xfb, 0x17, 0xf1, 0xed, 0xef, 0x01, 0xf8,
  0xd1, 0x05, 0xfd, 0xdd, 0x94, 0x04, 0xf8, 0xe2, 0xa5, 0xff, 0xfe, 0xe1,
  0x96, 0x05, 0x00, 0xe6, 0xc6, 0xf5, 0xfd, 0xe9, 0xfc, 0xfe, 0x01, 0xe8,
  0xfe, 0x0c, 0xf3, 0xef, 0x02, 0xea, 0xf9, 0xed, 0x00, 0x0b, 0xe4, 0xfa,
  0x03, 0x10, 0xf3, 0xeb, 0xf3, 0x15, 0x0a, 0x1a, 0x03, 0x03, 0x18, 0x07,
  0xc8, 0xf8, 0x12, 0x0c, 0xf8, 0x0a, 0x0a, 0x0b, 0xff, 0x08, 0x05, 0x0d,
  0xdf, 0x13, 0x02, 0xcd, 0xce, 0x22, 0x0b, 0xb7, 0x06, 0xf3, 0xff, 0xea,
  0xf0, 0x12, 0x0e, 0xfe, 0xf6, 0x05, 0x1b, 0x03, 0xde, 0xfd, 0x20, 0xfa,
  0xb4, 0xfd, 0x0c, 0xff, 0xb8, 0x08, 0x07, 0xd4, 0xd9, 0xfa, 0xfc, 0xe2,
  0xc7, 0x01, 0xf1, 0xff, 0xe6, 0xfa, 0x07, 0x09, 0x01, 0x07, 0x09, 0x0b,
  0x05, 0xf9, 0xf8, 0xf2, 0xfd, 0xf9, 0x18, 0xee, 0x06, 0x07, 0xe7, 0xeb,
  0xf6, 0x01, 0x0a, 0xee, 0xf9, 0x08, 0x07, 0xfb, 0xcf, 0x07, 0xf2, 0x0c,
  0xfc, 0x0a, 0x05, 0x0d, 0x0e, 0xf8, 0x09, 0x17, 0xf1, 0x03, 0x04, 0x1c,
  0xd2, 0x0d, 0x0d, 0x11, 0xe3, 0x1b, 0x35, 0xc7, 0x02, 0xed, 0xfb, 0xf3,
  0xc7, 0xf3, 0xee, 0xf7, 0xf8, 0xfb, 0xf3, 0xfc, 0xe0, 0x08, 0xf4, 0xff,
  0xe4, 0x07, 0x03, 0x00, 0xd6, 0x05, 0x05, 0xeb, 0xee, 0xf4, 0x01, 0xe9,
  0xd7, 0x01, 0xf6, 0x16, 0xfa, 0xfe, 0xf8, 0x21, 0xff, 0xfc, 0xf6, 0x32,
  0x01, 0xf4, 0x02, 0x3c, 0x07, 0xf9, 0x11, 0xfc, 0x09, 0xf8, 0x04, 0x02,
  0x0e, 0xf3, 0x0c, 0x2c, 0xe7, 0x01, 0x03, 0x28, 0x0c, 0x00, 0xf9, 0x3d,
  0x04, 0xe6, 0xf8, 0x33, 0xf6, 0xff, 0xf9, 0x30, 0xf9, 0x06, 0xf7, 0x17,
  0xc2, 0x0c, 0x18, 0x0e, 0xe1, 0x25, 0x3e, 0x0e, 0x05, 0xef, 0xf9, 0x00,
  0xdc, 0xf9, 0x02, 0xf0, 0xec, 0x00, 0xfc, 0xf5, 0xdc, 0xf6, 0xff, 0x05,
  0xc9, 0xf8, 0x06, 0x01, 0xda, 0xfb, 0x09, 0x03, 0xe7, 0xfe, 0xff, 0xf9,
  0xf0, 0xf9, 0xfb, 0x0f, 0xf6, 0xf4, 0x01, 0x38, 0x07, 0xfb, 0xf1, 0x39,
  0x0c, 0xf5, 0xf5, 0x3e, 0x05, 0xfc, 0x05, 0x12, 0x03, 0xf3, 0x05, 0xf7,
  0x22, 0xfc, 0xfb, 0x0a, 0xff, 0xfa, 0x17, 0x1c, 0xf5, 0x05, 0x13, 0x36,
  0xe5, 0xf2, 0xf2, 0x30, 0x04, 0x01, 0xf5, 0x49, 0xf2, 0xff, 0xf6, 0x1c,
  0xad, 0x18, 0xf5, 0x19, 0xd1, 0x27, 0x0f, 0x0b, 0xfc, 0xfa, 0xfa, 0x04,
  0xe6, 0x07, 0xfb, 0x02, 0xef, 0x08, 0xfb, 0x02, 0xcc, 0x01, 0xfe, 0xf5,
  0xd0, 0xfe, 0xf9, 0xf4, 0xe7, 0xfc, 0x03, 0xfb, 0x06, 0xfd, 0x05, 0x07,
  0x02, 0x03, 0x03, 0x10, 0x01, 0x04, 0xf6, 0x26, 0x0c, 0xfa, 0xfd, 0x3b,
  0x10, 0x00, 0xfa, 0x2f, 0xf9, 0x18, 0x09, 0x0c, 0xfd, 0x04, 0x03, 0xfe,
  0x38, 0xff, 0xf7, 0x06, 0x05, 0xf6, 0xff, 0xf8, 0xf6, 0xe9, 0xfb, 0x18,
  0xe3, 0xef, 0xe6, 0x36, 0x00, 0x12, 0xe2, 0x39, 0xc6, 0xf7, 0xf2, 0x2e,
  0xa0, 0x08, 0xfd, 0x1b, 0xd0, 0x38, 0xf5, 0x27, 0xe7, 0x0c, 0x08, 0xef,
  0xdb, 0x01, 0x00, 0xfa, 0xdb, 0xfd, 0xf6, 0x01, 0xe6, 0x02, 0x03, 0x04,
  0xf4, 0xf9, 0x01, 0x00, 0x0e, 0x02, 0xfd, 0x02, 0x03, 0xfd, 0x00, 0xfb,
  0x01, 0xf6, 0xfa, 0x19, 0x02, 0x0d, 0xf6, 0x0e, 0xfa, 0xfa, 0x03, 0x1e,
  0x0a, 0x01, 0x07, 0xfa, 0x01, 0xfa, 0xfb, 0x20, 0xfa, 0x13, 0x04, 0x0e,
  0x4f, 0x02, 0xfd, 0x12, 0xfb, 0xff, 0xf6, 0x0b, 0x01, 0xf0, 0xfd, 0x14,
  0xf9, 0xed, 0xe6, 0xff, 0xf7, 0x12, 0xf2, 0x03, 0xc5, 0xf4, 0xf8, 0x03,
  0x93, 0x13, 0xfa, 0x11, 0xb1, 0x13, 0x04, 0x0e, 0xba, 0x0d, 0xf9, 0xf6,
  0xcf, 0xfc, 0x09, 0xe3, 0xc9, 0x0d, 0x0b, 0xf7, 0xf3, 0xfe, 0xff, 0xfb,
  0xff, 0x0b, 0x07, 0xfb, 0x0a, 0x02, 0x04, 0x01, 0x05, 0x03, 0x0d, 0x05,
  0xf6, 0x03, 0xf8, 0x0d, 0x03, 0xfb, 0xfe, 0x1e, 0xf9, 0x01, 0x04, 0xfa,
  0x05, 0xfe, 0xf7, 0xfe, 0x01, 0xf4, 0xf7, 0xbc, 0x04, 0xf9, 0xee, 0x08,
  0x5a, 0xf4, 0xf1, 0x0c, 0xfb, 0xf1, 0x07, 0x3c, 0x0b, 0xf1, 0xf4, 0x21,
  0x0a, 0xf8, 0xf0, 0x25, 0x10, 0xeb, 0xf5, 0x16, 0xea, 0xe4, 0xf7, 0x24,
  0xb6, 0x04, 0x04, 0x02, 0xd0, 0x19, 0xfa, 0x00, 0xaa, 0x06, 0x07, 0xee,
  0xe8, 0xf6, 0x11, 0xe2, 0xde, 0xfa, 0x0b, 0xf0, 0x02, 0xfc, 0x10, 0x03,
  0x06, 0x05, 0xff, 0x06, 0x09, 0xee, 0x01, 0xf4, 0x0f, 0xf5, 0x07, 0x00,
  0x0f, 0xef, 0x0c, 0xfa, 0x03, 0xf2, 0x01, 0x08, 0x08, 0x05, 0x05, 0x08,
  0x00, 0xfc, 0x04, 0xfe, 0xff, 0xf6, 0xf2, 0xf6, 0x03, 0xf0, 0xe3, 0xff,
  0x0d, 0xe8, 0x04, 0x02, 0x06, 0xdb, 0xee, 0x01, 0x04, 0xe4, 0xf6, 0xe0,
  0x0c, 0xdd, 0xf1, 0x05, 0xf6, 0xfa, 0xf3, 0x03, 0xf4, 0x07, 0xf9, 0x24,
  0xf6, 0x19, 0x00, 0x0f, 0xdd, 0x0b, 0x1b, 0xfc, 0xdd, 0x10, 0x14, 0xec,
  0x08, 0xfc, 0x00, 0xd3, 0xfb, 0x01, 0x06, 0xef, 0x3b, 0xfa, 0x16, 0xfa,
  0x06, 0x04, 0x00, 0x03, 0xf8, 0xf3, 0xff, 0x03, 0x1f, 0x00, 0xfe, 0xf1,
  0x06, 0xf2, 0xf1, 0x0c, 0x07, 0xfb, 0x00, 0x06, 0x0d, 0xf5, 0xfc, 0x0c,
  0x00, 0x08, 0xf5, 0xfe, 0x07, 0x11, 0xf7, 0xf8, 0x04, 0xe7, 0xe9, 0x0b,
  0x02, 0xff, 0xf2, 0x0f, 0x03, 0xf5, 0xf8, 0xff, 0xf4, 0x03, 0xfb, 0xf6,
  0x0e, 0xe9, 0x02, 0xe3, 0xfa, 0xf9, 0x04, 0xf3, 0xf8, 0x0e, 0xfe, 0xf0,
  0x06, 0x02, 0x04, 0xeb, 0x0a, 0x01, 0x00, 0x00, 0xf2, 0x0b, 0x01, 0xf5,
  0xfb, 0x07, 0x0b, 0xe8, 0xfa, 0x09, 0x01, 0xff, 0x05, 0xf1, 0x07, 0x04,
  0x03, 0x06, 0x03, 0xf8, 0x0b, 0x08, 0xfc, 0x00, 0x2b, 0xfb, 0x15, 0xde,
  0x0e, 0xfd, 0xf9, 0xfa, 0x1f, 0xf9, 0xf4, 0xf8, 0x0f, 0x06, 0xfe, 0xf9,
  0x01, 0x06, 0x07, 0x0a, 0x01, 0x01, 0x27, 0x05, 0x10, 0x08, 0x26, 0x1d,
  0xfe, 0x0c, 0x28, 0x01, 0x01, 0xf7, 0x20, 0x08, 0x03, 0xfd, 0x09, 0x04,
  0x11, 0x00, 0x0a, 0x04, 0xfb, 0x02, 0x04, 0x09, 0xf5, 0x04, 0xf7, 0x06,
  0xf9, 0x05, 0x03, 0x08, 0x18, 0x07, 0xf6, 0x03, 0x1d, 0xf6, 0xff, 0xff,
  0xfc, 0x00, 0x0f, 0xfe, 0xfe, 0x03, 0xfa, 0xf6, 0x04, 0xfe, 0x12, 0xfd,
  0x0b, 0x04, 0xfc, 0xfd, 0x14, 0xf9, 0x0d, 0xfc, 0x19, 0x04, 0x05, 0x00,
  0x20, 0xfe, 0x01, 0x01, 0x08, 0xfb, 0x03, 0x00, 0xfd, 0xf2, 0xe7, 0xe5,
  0xfa, 0xff, 0x1c, 0x19, 0x09, 0xf2, 0x35, 0x09, 0x06, 0xee, 0x35, 0x0a,
  0xff, 0x01, 0x44, 0x0c, 0x08, 0xeb, 0x4a, 0xfd, 0x12, 0xfa, 0x3c, 0x02,
  0x03, 0xf7, 0x22, 0x06, 0x06, 0x00, 0x08, 0x01, 0x06, 0x02, 0xfa, 0xfd,
  0x1a, 0x13, 0xf8, 0x0e, 0x30, 0x08, 0xfd, 0xe2, 0x03, 0x01, 0xf0, 0x07,
  0x03, 0xff, 0xe3, 0xf8, 0xf6, 0x00, 0xf6, 0x02, 0xfe, 0xf4, 0x08, 0x02,
  0xfa, 0x00, 0xe5, 0xf8, 0xf8, 0xfa, 0xfb, 0xfe, 0xf0, 0x0d, 0x0d, 0x04,
  0x0b, 0x0b, 0x0f, 0x13, 0x06, 0x00, 0xf1, 0x1e, 0x3c, 0x13, 0x06, 0x20,
  0x67, 0x11, 0xfc, 0x14, 0x18, 0x0b, 0xf4, 0x06, 0x25, 0x12, 0xdc, 0xef,
  0x00, 0xeb, 0xd5, 0xe9, 0x09, 0xf5, 0xf7, 0xf0, 0xfc, 0xea, 0x02, 0x1f,
  0x0d, 0xf1, 0xe6, 0x1c, 0x38, 0xf0, 0xfe, 0x1b, 0x03, 0xf6, 0xf4, 0x36,
  0xff, 0xf0, 0xf4, 0x2e, 0xf9, 0xf8, 0xff, 0x02, 0xfd, 0x0d, 0x00, 0xf0,
  0xfd, 0x06, 0xf4, 0xf8, 0x0e, 0x05, 0x0b, 0x05, 0x0c, 0xf8, 0xfd, 0x01,
  0x04, 0x01, 0xe3, 0xf7, 0xfa, 0x0a, 0x0a, 0xf7, 0x0d, 0x10, 0x18, 0x18,
  0x0d, 0x0a, 0x06, 0x15, 0x14, 0x0b, 0xf9, 0x0b, 0x38, 0x12, 0xf9, 0x1c,
  0x38, 0xe2, 0xfc, 0x13, 0x0e, 0xe0, 0xf5, 0x09, 0x02, 0xf7, 0xf0, 0xff,
  0x08, 0xf9, 0xe8, 0xf1, 0x08, 0xf9, 0x16, 0xf5, 0x09, 0xea, 0x04, 0xf4,
  0x24, 0xf7, 0x03, 0x04, 0x47, 0xf1, 0xfd, 0x00, 0xf7, 0xe6, 0xfc, 0x03,
  0x05, 0xec, 0xea, 0x17, 0x05, 0x02, 0xf5, 0xed, 0xfb, 0x0e, 0xfc, 0xf8,
  0x08, 0x01, 0xf6, 0x01, 0x05, 0xf4, 0xec, 0x01, 0xf2, 0xfb, 0x02, 0x04,
  0x07, 0xee, 0xf6, 0x1c, 0x3c, 0xf6, 0x05, 0x1a, 0x2c, 0xfa, 0x11, 0x32,
  0x51, 0x03, 0x04, 0x19, 0x0b, 0x09, 0x08, 0x09, 0x31, 0x0d, 0x07, 0x01,
  0x16, 0xf1, 0xf3, 0x07, 0xf6, 0xe6, 0xf5, 0xfe, 0xf5, 0xf8, 0xeb, 0x0b,
  0x01, 0xfa, 0x04, 0xed, 0x04, 0xfa, 0xb8, 0xf1, 0x03, 0x05, 0x0d, 0xfe,
  0x2f, 0xf0, 0xf1, 0xec, 0x2a, 0xf5, 0xf6, 0xfb, 0xf9, 0xf4, 0xfb, 0xfe,
  0x0f, 0xf9, 0xf9, 0x1a, 0x16, 0x07, 0x03, 0x05, 0xfc, 0x04, 0xf9, 0x06,
  0x06, 0x02, 0x08, 0xfc, 0xfb, 0x01, 0xe6, 0x03, 0x0e, 0x09, 0x03, 0xff,
  0x1a, 0x00, 0x01, 0x18, 0x47, 0xf2, 0x0c, 0x1c, 0x41, 0xf9, 0x0e, 0x19,
  0x4b, 0xfd, 0xfa, 0x17, 0x29, 0x01, 0x0d, 0x18, 0x0d, 0x08, 0x05, 0x00,
  0xfb, 0x02, 0xf7, 0x08, 0x01, 0x10, 0xfd, 0x08, 0x04, 0xf8, 0x0b, 0x04,
  0xf8, 0xf7, 0xf8, 0x01, 0xfa, 0xe9, 0xfd, 0xea, 0xf5, 0xf2, 0xed, 0x01,
  0x26, 0xfe, 0xfc, 0x00, 0x0d, 0x00, 0x00, 0x07, 0x01, 0xef, 0x04, 0xfa,
  0x17, 0xf9, 0x06, 0x1f, 0x36, 0x00, 0xf4, 0x36, 0xfa, 0xff, 0xf8, 0x04,
  0x16, 0xfb, 0xe8, 0xfe, 0x0b, 0x01, 0xf3, 0xfb, 0x10, 0x01, 0xe9, 0xf6,
  0x33, 0xf3, 0xf8, 0x09, 0x45, 0x04, 0x07, 0x18, 0x1f, 0xf8, 0xf5, 0x09,
  0x38, 0x0e, 0x0a, 0x04, 0x16, 0x08, 0x01, 0x00, 0x03, 0x07, 0xfa, 0xf3,
  0xfd, 0x11, 0x05, 0xfb, 0x02, 0xf8, 0xe6, 0x01, 0x00, 0x0c, 0x03, 0x16,
  0x06, 0xff, 0xf3, 0x0e, 0xfa, 0x05, 0xf9, 0x0c, 0x25, 0xf8, 0xf9, 0xfc,
  0x06, 0x04, 0xf7, 0xf4, 0x03, 0x06, 0xfb, 0xfa, 0x02, 0x06, 0xfd, 0xf4,
  0x1b, 0xf8, 0xea, 0xf1, 0x1f, 0xf7, 0xe9, 0x2b, 0xf7, 0x0d, 0x09, 0x0d,
  0x3d, 0x12, 0xfb, 0x02, 0xf5, 0xf6, 0x0f, 0xff, 0x14, 0xf5, 0xff, 0xff,
  0x21, 0xfc, 0xf9, 0x0d, 0x11, 0x00, 0x07, 0x0c, 0x0b, 0x01, 0xfd, 0x20,
  0x2c, 0x09, 0xf6, 0xf6, 0xf7, 0x0c, 0xfd, 0xf0, 0x01, 0x0b, 0x01, 0xdd,
  0x06, 0x0f, 0x0d, 0xe9, 0xfb, 0xfe, 0xed, 0x04, 0x09, 0x00, 0xf9, 0xfe,
  0x01, 0x09, 0x02, 0xe4, 0x0d, 0xf6, 0x03, 0xdd, 0x05, 0x03, 0x0e, 0xd1,
  0x03, 0x0a, 0x04, 0xe1, 0xfa, 0x09, 0x0b, 0xe8, 0x0c, 0xef, 0x0b, 0xec,
  0x21, 0xf7, 0xf4, 0xfe, 0x0d, 0xe4, 0xd9, 0xff, 0xfe, 0x09, 0x03, 0x06,
  0x21, 0xf7, 0xf7, 0x00, 0x09, 0x05, 0xfa, 0x07, 0x14, 0xfb, 0x02, 0x07,
  0x28, 0x05, 0xfa, 0xf9, 0x17, 0xf9, 0xfb, 0x09, 0x11, 0x08, 0xf7, 0xfd,
  0x04, 0x05, 0x07, 0xfc, 0x03, 0x0b, 0x04, 0xd9, 0xf8, 0xfb, 0x10, 0xd5,
  0xf1, 0x0e, 0xfa, 0xdf, 0x02, 0x03, 0x02, 0xfc, 0x0c, 0xf7, 0x05, 0x05,
  0xe6, 0xfa, 0xfb, 0xf4, 0xfd, 0x01, 0xec, 0xdf, 0xfd, 0xfa, 0xf2, 0xcb,
  0x0c, 0x14, 0x18, 0xd8, 0xff, 0xfb, 0x06, 0xcb, 0xfc, 0xf8, 0x02, 0xf0,
  0x33, 0xed, 0x02, 0xf1, 0x2e, 0xe6, 0xf5, 0xf8, 0xfa, 0xfb, 0x04, 0x0a,
  0x10, 0xf1, 0xf4, 0x09, 0x15, 0x03, 0xfa, 0xff, 0x1c, 0x06, 0x0c, 0xfe,
  0x1b, 0xfa, 0xf7, 0x09, 0x0f, 0x04, 0xfa, 0xf8, 0xf2, 0x04, 0x08, 0xf5,
  0xfe, 0xfb, 0x10, 0x00, 0x07, 0xff, 0x08, 0xe2, 0x04, 0x01, 0x03, 0xdc,
  0xf8, 0xf7, 0xf8, 0xdd, 0xf8, 0xf8, 0xfa, 0x03, 0x07, 0xfa, 0xf5, 0x02,
  0xdd, 0xf1, 0xff, 0x0a, 0x00, 0x0d, 0x0f, 0x08, 0xf7, 0x0d, 0x09, 0xee,
  0x0d, 0x03, 0x1a, 0xce, 0x06, 0xfa, 0x0c, 0xc9, 0x2a, 0x04, 0x03, 0xe4,
  0x38, 0xf1, 0x08, 0xf1, 0x28, 0xe1, 0xfb, 0xde, 0x12, 0xf8, 0xfb, 0x05,
  0x16, 0xfc, 0x0d, 0x06, 0x19, 0xfa, 0x09, 0xfa, 0x11, 0x02, 0x0a, 0x0c,
  0x0b, 0xfa, 0x00, 0xff, 0xf3, 0x02, 0x08, 0x00, 0x00, 0x0d, 0x0e, 0x0f,
  0xff, 0x03, 0x07, 0xfa, 0x00, 0xf8, 0xf8, 0xe9, 0xfd, 0x04, 0xf2, 0xf5,
  0xfa, 0x02, 0x0c, 0xff, 0xf9, 0x01, 0xfc, 0xf7, 0x04, 0xee, 0xfd, 0xe8,
  0xc7, 0x07, 0x03, 0xf6, 0xff, 0x06, 0x08, 0xf1, 0x03, 0x06, 0x03, 0xef,
  0x13, 0x16, 0x12, 0xf8, 0x0a, 0x01, 0x0c, 0xfe, 0x28, 0x0b, 0x0e, 0x0d,
  0x46, 0xfd, 0x08, 0xf3, 0x30, 0xf0, 0x07, 0x03, 0x31, 0xef, 0x00, 0x07,
  0x22, 0x08, 0xfe, 0x0c, 0x33, 0x02, 0x02, 0x08, 0x01, 0xf2, 0xfd, 0x04,
  0x02, 0x00, 0xfc, 0xfd, 0xfe, 0xfb, 0x04, 0x07, 0xf7, 0xff, 0xf5, 0xf5,
  0x06, 0x03, 0x0d, 0xf6, 0xf7, 0x05, 0xfc, 0xf2, 0xf9, 0xf3, 0x00, 0x0b,
  0x07, 0xfd, 0xf7, 0xfc, 0xfa, 0x0b, 0x08, 0x2e, 0x05, 0xfe, 0x06, 0xf0,
  0xbd, 0x0b, 0x11, 0xff, 0x05, 0x0e, 0x01, 0xe8, 0x02, 0xfd, 0xfc, 0xfa,
  0xf5, 0x05, 0xf9, 0xe6, 0xf8, 0xfe, 0x02, 0xf3, 0x16, 0x09, 0x09, 0xef,
  0x41, 0xf5, 0xf4, 0xec, 0x1b, 0xf3, 0x02, 0x07, 0x31, 0xf1, 0x01, 0x07,
  0x18, 0xf7, 0xf5, 0x23, 0x0d, 0x01, 0xf1, 0x09, 0xfa, 0x02, 0x06, 0xf5,
  0xf4, 0x03, 0xf9, 0x0b, 0x03, 0x0b, 0x06, 0x11, 0xf8, 0x04, 0x01, 0xfa,
  0x00, 0xfb, 0xfb, 0xfc, 0xf7, 0xfa, 0x02, 0x07, 0x06, 0x08, 0xf5, 0x04,
  0xf7, 0xfe, 0x09, 0x07, 0xfd, 0x0a, 0x0c, 0x06, 0x03, 0x0d, 0x12, 0xfb,
  0xe9, 0x12, 0x07, 0xf6, 0xfe, 0x18, 0x0a, 0xfe, 0x07, 0x05, 0xfe, 0x0d,
  0xed, 0x0b, 0x18, 0x0a, 0xf7, 0xfe, 0x06, 0xf8, 0xf7, 0xff, 0x0c, 0x00,
  0x0e, 0xf9, 0xff, 0xf2, 0x25, 0x02, 0xf4, 0xfe, 0x1b, 0x05, 0xee, 0x16,
  0xfd, 0x02, 0x07, 0x24, 0x0b, 0xf8, 0x00, 0x00, 0xda, 0x06, 0xf3, 0xfb,
  0x00, 0xf7, 0x06, 0x00, 0x0d, 0x0e, 0x01, 0x04, 0xe2, 0x09, 0x00, 0xfd,
  0xf1, 0xff, 0xfe, 0xfd, 0xf5, 0x02, 0x01, 0x00, 0xf5, 0x05, 0x03, 0xf6,
  0xfc, 0x05, 0x0b, 0xfd, 0xfc, 0xfa, 0x0b, 0xfa, 0xfd, 0x0d, 0x0e, 0x00,
  0xfc, 0x04, 0x08, 0xfb, 0xfe, 0x00, 0x0f, 0x04, 0x00, 0x04, 0x07, 0x06,
  0x05, 0x02, 0xfe, 0x12, 0x01, 0x0d, 0x01, 0x02, 0xf5, 0xf4, 0x0b, 0x17,
  0xf9, 0xf3, 0xf8, 0x07, 0xfe, 0x03, 0x05, 0xf7, 0x01, 0xf0, 0xf7, 0x1a,
  0x00, 0xf5, 0x01, 0x0c, 0xf8, 0x01, 0xf6, 0x04, 0xfa, 0x03, 0xf7, 0xf3,
  0xf6, 0x09, 0x05, 0xfe, 0xf4, 0xfe, 0x05, 0x09, 0xe4, 0x09, 0xeb, 0x13,
  0xf3, 0x07, 0xff, 0x0f, 0xf1, 0xf9, 0xfd, 0x06, 0xf7, 0x03, 0x0d, 0x07,
  0xfa, 0xf8, 0x06, 0x08, 0xfc, 0x04, 0xdf, 0xfb, 0xfb, 0xf5, 0xe2, 0xfb,
  0xfd, 0xfc, 0xe5, 0x0d, 0xf4, 0x05, 0xe8, 0xfa, 0x03, 0x09, 0xf5, 0x07,
  0xe8, 0x0c, 0xf6, 0xfb, 0xfa, 0x05, 0x08, 0x06, 0x01, 0x01, 0xfc, 0xff,
  0xf8, 0xfe, 0x03, 0xff, 0xe0, 0xed, 0xf8, 0x02, 0xe2, 0x05, 0x05, 0x0e,
  0xfd, 0xf7, 0xfd, 0x08, 0x04, 0xff, 0x08, 0x0b, 0x00, 0xfd, 0xf8, 0x09,
  0xed, 0x02, 0x08, 0x00, 0xf4, 0x0a, 0x02, 0x03, 0xe4, 0x04, 0xfe, 0xfa,
  0xf5, 0x02, 0xf9, 0xf3, 0xef, 0x0c, 0x08, 0x08, 0x00, 0x04, 0x14, 0x09,
  0x07, 0x02, 0xf1, 0xfc, 0x06, 0xff, 0xe2, 0xfb, 0xf7, 0x04, 0xe2, 0xfc,
  0xff, 0xfd, 0xc3, 0xfb, 0xf6, 0x08, 0xd2, 0x0b, 0xf6, 0xfe, 0xe0, 0x02,
  0x05, 0x05, 0xef, 0x03, 0xfe, 0xf7, 0x08, 0x04, 0xfa, 0x06, 0x04, 0x09,
  0xeb, 0xf7, 0x09, 0x01, 0xda, 0x03, 0x07, 0x21, 0x00, 0xfa, 0x12, 0xed,
  0xff, 0xf1, 0x20, 0x14, 0xfe, 0x16, 0x10, 0xfd, 0x05, 0xff, 0xe4, 0xf1,
  0x01, 0xf4, 0x22, 0xfd, 0x03, 0xfb, 0x0b, 0xf6, 0x06, 0x02, 0xec, 0xe8,
  0x04, 0xf5, 0xf2, 0xfd, 0x01, 0x07, 0x04, 0xd8, 0xcd, 0xea, 0xfd, 0xe0,
  0x99, 0xd9, 0x04, 0xd3, 0xed, 0xf0, 0x12, 0x08, 0xd9, 0xf2, 0x1a, 0x12,
  0xfa, 0x0b, 0x25, 0x0a, 0x00, 0x0e, 0x0d, 0x06, 0xfd, 0x09, 0x0c, 0xca,
  0x07, 0x09, 0x0b, 0xcf, 0xc7, 0x10, 0x09, 0xda, 0xff, 0x17, 0x06, 0xb7,
  0x04, 0x10, 0x17, 0xcf, 0x09, 0x16, 0xfe, 0x08, 0x05, 0xfb, 0x11, 0x08,
  0xfb, 0xfa, 0x1b, 0xfc, 0x00, 0xf2, 0x01, 0xf8, 0xf7, 0x01, 0xf6, 0x04,
  0xf6, 0x01, 0x18, 0x07, 0x09, 0xfa, 0x02, 0x08, 0x07, 0xff, 0xe5, 0xe7,
  0xf1, 0x03, 0xfc, 0xe8, 0xf2, 0xfd, 0x09, 0xfb, 0xbd, 0xe9, 0x0b, 0xdb,
  0xc1, 0x1d, 0x0b, 0xe4, 0xf2, 0x2a, 0x07, 0xfb, 0xfe, 0x0f, 0x25, 0x17,
  0x00, 0xf7, 0x23, 0x0b, 0xfb, 0x11, 0xe7, 0x05, 0xfe, 0x13, 0xfd, 0x04,
  0xda, 0x08, 0x08, 0xf0, 0xa7, 0x0d, 0x08, 0x0a, 0xfd, 0x0a, 0x04, 0xeb,
  0x01, 0x08, 0x15, 0xdb, 0xf5, 0xfe, 0xfa, 0x0a, 0x0b, 0xf4, 0xf3, 0x08,
  0xfb, 0xfe, 0x14, 0xfd, 0x00, 0x06, 0x11, 0xf7, 0x03, 0x08, 0xf4, 0xed,
  0xf8, 0x04, 0x07, 0xe1, 0xbf, 0x01, 0x01, 0xd1, 0xda, 0xf6, 0xdb, 0xca,
  0xad, 0xee, 0xfa, 0xda, 0xf2, 0x03, 0xfc, 0xf6, 0xc5, 0xf8, 0x08, 0x00,
  0xe8, 0x0a, 0x02, 0xf1, 0xfc, 0x25, 0x0a, 0x0a, 0xfa, 0x02, 0x22, 0xfd,
  0x06, 0x0d, 0xfd, 0x03, 0x01, 0x00, 0x5a, 0x12, 0x00, 0xfc, 0xfc, 0x04,
  0xb9, 0x0a, 0x02, 0x0e, 0xcd, 0x10, 0x04, 0x0f, 0x02, 0x1a, 0x09, 0xe9,
  0xf5, 0x04, 0x00, 0xd8, 0xe6, 0x04, 0x04, 0xeb, 0xff, 0xf8, 0xf5, 0x07,
  0xfd, 0x05, 0x06, 0xf3, 0xf8, 0x01, 0x1c, 0xf5, 0xeb, 0xf5, 0x0b, 0xfe,
  0xe3, 0x02, 0x0b, 0xde, 0x97, 0x0a, 0x02, 0xea, 0xb1, 0x06, 0xee, 0xe7,
  0xa0, 0x05, 0x01, 0xea, 0xde, 0xf5, 0xf9, 0xec, 0xf5, 0x0b, 0xfa, 0xf2,
  0x09, 0xfa, 0x01, 0xf5, 0x05, 0xfc, 0xf1, 0xf3, 0xff, 0x0b, 0xdb, 0x09,
  0xf7, 0x16, 0x02, 0xf7, 0xf5, 0x1e, 0x0b, 0x1a, 0x06, 0x08, 0x14, 0x06,
  0xcf, 0x02, 0x0b, 0x0b, 0xf9, 0x04, 0x07, 0x0b, 0x02, 0x06, 0xff, 0x08,
  0xe5, 0x08, 0x03, 0xd3, 0xca, 0x0f, 0x0f, 0xd3, 0x04, 0xf9, 0x0d, 0xfa,
  0xea, 0x14, 0x0e, 0xfe, 0xf1, 0xf6, 0x17, 0xf9, 0xf1, 0xfa, 0x25, 0xf9,
  0xc2, 0x01, 0x09, 0xf1, 0xb5, 0x08, 0xfa, 0xd4, 0xe8, 0xfd, 0xfa, 0xf2,
  0xbf, 0xef, 0xfb, 0xf9, 0xeb, 0xf2, 0xf6, 0xff, 0x02, 0x03, 0xf6, 0x1a,
  0x09, 0xf9, 0xfc, 0xfb, 0xfc, 0xff, 0x1c, 0xfa, 0x04, 0xf4, 0xed, 0xf3,
  0x04, 0x05, 0x0c, 0xf2, 0x07, 0x0e, 0xfc, 0xfb, 0xe2, 0xff, 0xfa, 0x00,
  0xec, 0x07, 0x03, 0x0d, 0x01, 0x04, 0x04, 0x06, 0x01, 0x05, 0xfe, 0x14,
  0xe4, 0x0c, 0x0c, 0x0e, 0xde, 0x0e, 0x25, 0xdb, 0x03, 0x00, 0xfb, 0xf7,
  0xc7, 0xfc, 0xf3, 0x00, 0xf8, 0xf8, 0xfd, 0xfb, 0xf0, 0x0a, 0xfb, 0x10,
  0xd6, 0xff, 0x0d, 0xf5, 0xe3, 0x07, 0xff, 0xf0, 0xf0, 0xf3, 0xf9, 0xe8,
  0xd2, 0x0a, 0x08, 0x18, 0x09, 0xf6, 0xf7, 0x1f, 0x03, 0x01, 0xf4, 0x35,
  0x0f, 0xf4, 0xff, 0x2c, 0xf8, 0x0a, 0x07, 0x01, 0xfa, 0x07, 0x07, 0x05,
  0x02, 0xfc, 0x05, 0x2b, 0xec, 0x04, 0x07, 0x25, 0xf9, 0xff, 0xfc, 0x35,
  0xfc, 0xf3, 0xef, 0x30, 0xf6, 0xfc, 0x03, 0x26, 0xf4, 0x01, 0xf5, 0x12,
  0xd9, 0x04, 0x05, 0x14, 0xed, 0x13, 0x33, 0xf7, 0x0a, 0xec, 0xff, 0x02,
  0xd7, 0xfb, 0x06, 0x00, 0xf2, 0xf8, 0x03, 0x08, 0xf2, 0xfb, 0xf3, 0x04,
  0xda, 0x03, 0x01, 0x05, 0xdf, 0x06, 0xfe, 0x03, 0xfe, 0xfa, 0xf9, 0xf0,
  0xed, 0xfb, 0xf7, 0x10, 0x09, 0x08, 0xee, 0x34, 0xfd, 0xff, 0xfc, 0x27,
  0x0e, 0x04, 0x03, 0x27, 0xf9, 0x0e, 0xff, 0x0e, 0xff, 0xfa, 0xf8, 0x07,
  0x1d, 0xff, 0x05, 0x0c, 0xfd, 0x0a, 0x07, 0x11, 0x01, 0xff, 0x15, 0x32,
  0xe3, 0xea, 0xf4, 0x40, 0x03, 0x01, 0xfe, 0x38, 0xf4, 0x02, 0xf3, 0x08,
  0xb9, 0x10, 0xfb, 0x0f, 0xd5, 0x0f, 0x03, 0x0d, 0x04, 0xf6, 0xfb, 0xfd,
  0xe2, 0x00, 0x05, 0xfb, 0xe7, 0x0b, 0x04, 0x02, 0xdb, 0x07, 0xfa, 0xf5,
  0xe4, 0x02, 0x0c, 0xfc, 0xe7, 0xfe, 0x0a, 0xf5, 0x0f, 0x02, 0x0b, 0x0c,
  0x05, 0xf9, 0xf1, 0x12, 0x05, 0xfe, 0xf4, 0x1b, 0x08, 0x03, 0xff, 0x34,
  0x11, 0x04, 0x09, 0x40, 0x04, 0x08, 0xf7, 0x10, 0x0c, 0x06, 0x04, 0xff,
  0x2e, 0x0e, 0xff, 0xf9, 0xfb, 0xfa, 0xf4, 0xf7, 0xf8, 0xff, 0x09, 0x08,
  0xe3, 0xf1, 0xe0, 0x3e, 0x02, 0x07, 0xf6, 0x34, 0xd5, 0xf5, 0xf0, 0x26,
  0xb4, 0x16, 0x02, 0x22, 0xce, 0x32, 0xf8, 0x27, 0xec, 0x07, 0x09, 0xf5,
  0xe7, 0xfa, 0xf6, 0xf3, 0xdd, 0xfa, 0xfe, 0xfb, 0xea, 0x03, 0x04, 0xf4,
  0xfb, 0x03, 0xf7, 0x01, 0x01, 0xfd, 0x0a, 0xf0, 0x08, 0x05, 0xf3, 0x04,
  0x02, 0xfc, 0xf7, 0x17, 0x08, 0xfe, 0xfd, 0x08, 0x04, 0xfc, 0x02, 0x1a,
  0x0d, 0x04, 0x06, 0xf4, 0xf9, 0x01, 0x0a, 0x18, 0x06, 0x0e, 0xf9, 0x17,
  0x48, 0xf6, 0xf5, 0x0c, 0xfe, 0xfc, 0x04, 0x06, 0x08, 0xfb, 0xfc, 0x07,
  0xee, 0xe5, 0xee, 0x09, 0x06, 0x13, 0xfc, 0xff, 0xcf, 0xf1, 0xf1, 0xf7,
  0xa3, 0x01, 0xff, 0x03, 0xb6, 0x13, 0xf7, 0x08, 0xd3, 0x0e, 0xf8, 0xee,
  0xd5, 0xf3, 0x00, 0xdd, 0xcd, 0x05, 0x00, 0xf2, 0xff, 0xfe, 0x01, 0xfd,
  0x09, 0xfc, 0xfb, 0x00, 0x07, 0xf3, 0x05, 0xf8, 0xfd, 0x05, 0x07, 0xff,
  0x06, 0xfc, 0xf1, 0x01, 0xfc, 0xfc, 0xfd, 0x12, 0x09, 0x02, 0x10, 0xf0,
  0x08, 0x0b, 0x0b, 0x05, 0xff, 0xf3, 0x01, 0xc9, 0x05, 0xf7, 0xf4, 0x06,
  0x4f, 0xfb, 0xf9, 0x09, 0x02, 0xfc, 0x0e, 0x1f, 0x03, 0x00, 0x04, 0x17,
  0x01, 0xfa, 0xfc, 0x12, 0x04, 0xf2, 0xf1, 0x13, 0xea, 0xe3, 0xed, 0x19,
  0xbf, 0x03, 0x08, 0x15, 0xd6, 0x07, 0x02, 0x03, 0xb7, 0x03, 0x0d, 0xe5,
  0xf7, 0xf7, 0x11, 0xe0, 0xec, 0x0b, 0x11, 0xf4, 0x06, 0x02, 0xff, 0x0f,
  0x0d, 0xfe, 0x0f, 0xf3, 0xf9, 0xf0, 0x0a, 0x03, 0xfa, 0x05, 0xff, 0x01,
  0x0a, 0xf6, 0xfa, 0xfe, 0xf7, 0x01, 0xfe, 0x0b, 0xff, 0xf9, 0x09, 0xfc,
  0x07, 0x04, 0x02, 0xfd, 0xf8, 0xff, 0xea, 0xf6, 0xf5, 0xff, 0xe7, 0xfa,
  0x10, 0xe9, 0x03, 0x0d, 0xf9, 0xf1, 0xed, 0x0b, 0xfc, 0xe9, 0xf7, 0xef,
  0x1d, 0xeb, 0xf0, 0x08, 0xfc, 0x07, 0x02, 0x05, 0xfc, 0x06, 0xf7, 0x19,
  0xf2, 0x0e, 0x05, 0x0e, 0xd5, 0x01, 0x06, 0x12, 0xd6, 0x04, 0x06, 0xfc,
  0xff, 0xf8, 0x0a, 0xd9, 0xf8, 0xf9, 0x05, 0x01, 0x2a, 0xf8, 0x05, 0x08,
  0x05, 0x03, 0x0b, 0x0c, 0x01, 0xfb, 0x05, 0x06, 0x1e, 0xff, 0xfc, 0x04,
  0x11, 0xf4, 0xf3, 0x0a, 0xfe, 0x09, 0xfb, 0x00, 0x03, 0xf7, 0xfd, 0x05,
  0x00, 0x00, 0xfb, 0x07, 0x09, 0x09, 0xe9, 0x00, 0xff, 0xf4, 0xed, 0xf6,
  0x05, 0xf0, 0xe5, 0x04, 0xfc, 0xfa, 0xf6, 0x04, 0xfe, 0xf9, 0xff, 0x03,
  0x0a, 0xfe, 0xf9, 0xf6, 0x08, 0x03, 0xf6, 0xff, 0x04, 0x08, 0xfb, 0xf2,
  0xfc, 0x07, 0x0b, 0xea, 0x02, 0x03, 0x04, 0x00, 0x04, 0x08, 0x10, 0xf0,
  0xfd, 0x09, 0x06, 0xf2, 0x02, 0x06, 0x00, 0xfd, 0x0a, 0xee, 0x07, 0xfd,
  0x05, 0xf7, 0xfc, 0xfd, 0x0b, 0x01, 0xf4, 0x03, 0x1d, 0xfd, 0x06, 0xeb,
  0x12, 0x06, 0x06, 0xf8, 0x0c, 0x07, 0xfc, 0xfe, 0x08, 0xf8, 0xff, 0xfa,
  0x07, 0xfa, 0x0a, 0xf9, 0xfa, 0x00, 0x22, 0x01, 0x00, 0x0a, 0x14, 0x15,
  0x0c, 0x0b, 0x1f, 0x03, 0x08, 0x04, 0x0e, 0x09, 0xfe, 0xfd, 0x0a, 0x02,
  0x1d, 0xf4, 0xff, 0x01, 0x06, 0xfa, 0xf6, 0xfb, 0xf3, 0x0b, 0xfe, 0xf5,
  0x0d, 0x00, 0xff, 0xfe, 0x1c, 0x0d, 0x07, 0x04, 0x1a, 0xfe, 0x05, 0xf5,
  0x09, 0xfa, 0xfd, 0xfa, 0x06, 0x04, 0xf7, 0x06, 0x10, 0x04, 0x00, 0xff,
  0x06, 0xfd, 0xf7, 0x05, 0x10, 0xf9, 0x03, 0x04, 0x25, 0xff, 0xf7, 0xf2,
  0x1e, 0x01, 0x0f, 0xfc, 0x12, 0xfb, 0x03, 0x06, 0xfc, 0xff, 0xea, 0xea,
  0x0b, 0xfc, 0x11, 0x17, 0x00, 0xf4, 0x32, 0x01, 0x00, 0xfa, 0x23, 0x00,
  0xfd, 0x08, 0x3f, 0x0c, 0x0c, 0xf5, 0x3b, 0xfe, 0x07, 0x03, 0x3a, 0xf5,
  0xfb, 0xf4, 0x1c, 0xf1, 0x03, 0x0d, 0xfa, 0xf5, 0x07, 0xfe, 0xf7, 0xf0,
  0x13, 0x0e, 0x01, 0x07, 0x2c, 0x04, 0x06, 0xd2, 0xf6, 0xf5, 0xf9, 0x14,
  0xff, 0x05, 0xeb, 0xfe, 0xfc, 0xed, 0x02, 0xf7, 0x09, 0x06, 0x03, 0x0e,
  0x01, 0x0d, 0xed, 0x00, 0x0b, 0x04, 0x05, 0xfd, 0xff, 0x0e, 0x0b, 0x11,
  0x0a, 0x0b, 0x02, 0x0c, 0x08, 0xf4, 0xfb, 0x0f, 0x30, 0x15, 0x0c, 0x1d,
  0x5e, 0x22, 0xfc, 0x17, 0x0d, 0x01, 0xf4, 0xfa, 0x24, 0x0a, 0xe9, 0xf2,
  0x00, 0xfa, 0xea, 0xf0, 0x09, 0xf2, 0xff, 0xfb, 0xff, 0xf7, 0xff, 0x15,
  0x05, 0xef, 0xe7, 0x18, 0x25, 0xf2, 0xf8, 0x0f, 0x0f, 0xfe, 0xfa, 0x28,
  0x06, 0x01, 0xf9, 0x24, 0x01, 0xf0, 0xfe, 0xf6, 0x00, 0x03, 0x00, 0xf4,
  0x04, 0x02, 0xe3, 0x07, 0x0a, 0xfc, 0x01, 0x05, 0x04, 0xf4, 0x0c, 0x08,
  0xfe, 0xf0, 0xf3, 0xef, 0xff, 0xfd, 0xfc, 0xe9, 0xfd, 0xfa, 0x0e, 0x0b,
  0x18, 0x09, 0x0a, 0x10, 0x04, 0x08, 0xfe, 0xfa, 0x31, 0x10, 0x00, 0x1a,
  0x41, 0xf7, 0x05, 0x12, 0x0e, 0xe2, 0xf6, 0x0a, 0x0a, 0xf6, 0xe1, 0xf7,
  0xf8, 0x05, 0xef, 0xea, 0x01, 0xf1, 0x13, 0xf3, 0x0c, 0xf8, 0x03, 0xff,
  0x1f, 0x02, 0xf0, 0xfd, 0x4a, 0xef, 0xf9, 0xef, 0xfd, 0xed, 0xf1, 0x05,
  0xff, 0xf1, 0xfc, 0x17, 0x09, 0x07, 0x07, 0xf2, 0xfe, 0xff, 0xfc, 0x03,
  0xfb, 0x0a, 0xee, 0xfa, 0xf9, 0xf6, 0xf3, 0xfd, 0xf9, 0xf6, 0x10, 0x16,
  0x10, 0xf5, 0xf4, 0x1a, 0x33, 0xfb, 0x04, 0x20, 0x2a, 0xfa, 0x1b, 0x33,
  0x4f, 0x00, 0x15, 0x19, 0x14, 0x09, 0x01, 0x07, 0x36, 0x01, 0x04, 0xf9,
  0x10, 0xee, 0xfd, 0x08, 0x04, 0xe3, 0xf4, 0xfc, 0x08, 0x04, 0xdf, 0x01,
  0xf7, 0xf5, 0xfc, 0xf5, 0x00, 0xf5, 0xb4, 0x03, 0xfa, 0xf4, 0x0d, 0xfd,
  0x2d, 0xfb, 0x06, 0xf4, 0x2c, 0xf1, 0x07, 0xf7, 0xf8, 0xff, 0x05, 0xff,
  0x0c, 0x07, 0xf4, 0x12, 0x0f, 0x04, 0xf7, 0x0b, 0x02, 0x03, 0x05, 0x07,
  0xf8, 0xf8, 0x02, 0xfa, 0x01, 0xf7, 0xee, 0x0a, 0x00, 0x0e, 0xf6, 0x02,
  0x1e, 0xff, 0xf2, 0x12, 0x52, 0xf2, 0xfd, 0x05, 0x37, 0x01, 0x02, 0x16,
  0x48, 0xfe, 0xfa, 0x0f, 0x28, 0xff, 0x00, 0x04, 0xff, 0x00, 0x01, 0x0c,
  0xf8, 0xf9, 0x05, 0xfc, 0xf6, 0x06, 0x0d, 0x0b, 0x08, 0x08, 0x1c, 0x08,
  0x03, 0xe8, 0x00, 0x01, 0x02, 0xed, 0x02, 0xf9, 0xfe, 0xf5, 0xf2, 0xf8,
  0x2a, 0xfb, 0xfd, 0xf5, 0xff, 0x01, 0xfb, 0x05, 0xf5, 0xf4, 0x07, 0x00,
  0x17, 0xf9, 0xff, 0x0f, 0x29, 0xfd, 0xf9, 0x2a, 0x00, 0xfd, 0xf4, 0x06,
  0x0f, 0xf0, 0xf8, 0x09, 0x0c, 0x05, 0xf3, 0x07, 0x17, 0xf8, 0xea, 0x01,
  0x24, 0xfe, 0xfa, 0x08, 0x2e, 0xf8, 0xfc, 0x25, 0x1d, 0xff, 0xfb, 0x10,
  0x2d, 0x0d, 0x02, 0x08, 0x16, 0x0e, 0x0c, 0xfc, 0xff, 0x0e, 0x09, 0xf5,
  0xf6, 0x0f, 0xfe, 0x04, 0x04, 0x00, 0xef, 0x02, 0xfd, 0xf8, 0x0d, 0x10,
  0x02, 0xf8, 0x04, 0xfb, 0x05, 0x02, 0x07, 0x0c, 0x1e, 0xf3, 0x03, 0x03,
  0xff, 0xfe, 0xf4, 0xfc, 0x07, 0xfd, 0x05, 0xfc, 0xfd, 0x05, 0x09, 0xe7,
  0x21, 0xf2, 0xfb, 0xed, 0x11, 0xee, 0xd9, 0x27, 0xf2, 0x05, 0xf7, 0x04,
  0x3a, 0x13, 0x0b, 0x04, 0x04, 0x01, 0x05, 0xfa, 0x01, 0xea, 0xfd, 0xf9,
  0x22, 0xf6, 0xf4, 0x02, 0x15, 0x06, 0xf6, 0x03, 0x0a, 0x04, 0x06, 0x09,
  0x22, 0x00, 0x04, 0xef, 0xf2, 0xfe, 0x04, 0xe8, 0x0a, 0x03, 0x0d, 0xe8,
  0xf2, 0x05, 0x09, 0xde, 0xff, 0x0a, 0xef, 0xef, 0xf7, 0xfe, 0xf8, 0xfc,
  0xfe, 0x0a, 0xfd, 0xe9, 0x0e, 0xfa, 0x05, 0xdb, 0x05, 0xf8, 0x12, 0xdc,
  0xfc, 0x01, 0x09, 0xe7, 0x01, 0x01, 0x0c, 0xe8, 0x11, 0x01, 0x02, 0xee,
  0x25, 0xf4, 0xfa, 0x06, 0x1e, 0xf1, 0xd2, 0x0e, 0xff, 0x13, 0x12, 0x09,
  0x17, 0xf7, 0xf3, 0xfc, 0x08, 0x03, 0x04, 0x04, 0x04, 0xf8, 0xff, 0x03,
  0x29, 0x07, 0x05, 0xfa, 0x17, 0x09, 0x08, 0x0e, 0x05, 0x03, 0x08, 0xff,
  0x16, 0x09, 0xff, 0xfd, 0x03, 0x06, 0x0e, 0xe4, 0x01, 0xfe, 0x10, 0xe4,
  0xef, 0xfc, 0x07, 0xd5, 0x00, 0xfa, 0xff, 0x03, 0x05, 0x03, 0xfe, 0x04,
  0xf1, 0xf6, 0xfe, 0xee, 0x03, 0x02, 0xf0, 0xe9, 0x00, 0x0b, 0xfe, 0xde,
  0x13, 0x18, 0x02, 0xc8, 0x09, 0x06, 0x09, 0xd6, 0xfe, 0xfc, 0x00, 0xfd,
  0x32, 0xf4, 0x09, 0x03, 0x2d, 0xeb, 0xff, 0xef, 0xff, 0x0a, 0x08, 0x03,
  0x16, 0xfd, 0x06, 0xff, 0x07, 0xfd, 0x02, 0xfb, 0x22, 0x00, 0x00, 0x0e,
  0x23, 0xfe, 0x00, 0x0e, 0x1c, 0x07, 0xf9, 0xf9, 0xf2, 0x03, 0xfd, 0x02,
  0xfb, 0x02, 0xfc, 0xff, 0x01, 0x0a, 0x0c, 0xe9, 0xff, 0xfc, 0x0b, 0xe2,
  0xf5, 0xff, 0xf1, 0xdc, 0x04, 0xea, 0xff, 0xfb, 0x00, 0xff, 0x05, 0xf0,
  0xd7, 0xfb, 0xf8, 0x02, 0xfa, 0x05, 0x0e, 0x05, 0xfd, 0xfc, 0xf7, 0xec,
  0x1a, 0x0e, 0x0b, 0xd7, 0x09, 0xfc, 0x0f, 0xd5, 0x2e, 0x06, 0x01, 0xdf,
  0x3e, 0xf1, 0x01, 0xeb, 0x1c, 0xd8, 0x08, 0xec, 0x13, 0xf8, 0xf3, 0x11,
  0x0f, 0x0a, 0x0a, 0x12, 0x1f, 0xf5, 0x0f, 0x04, 0x1f, 0xf9, 0x07, 0x00,
  0x0c, 0xf7, 0xf9, 0x02, 0xfb, 0x09, 0xfe, 0x04, 0x03, 0x04, 0xff, 0x03,
  0x03, 0x06, 0xfa, 0xf9, 0x00, 0xfd, 0x09, 0xf7, 0xfb, 0xff, 0xf5, 0xec,
  0xe9, 0x00, 0xfe, 0x0a, 0x0b, 0xf8, 0xf3, 0xeb, 0x07, 0xfb, 0x01, 0xe9,
  0xd3, 0x07, 0x0a, 0xf1, 0xf6, 0xfd, 0x02, 0xf9, 0xfb, 0xfe, 0xfa, 0xfc,
  0x08, 0x17, 0x09, 0x01, 0x09, 0xf3, 0xfd, 0x08, 0x20, 0x0c, 0x09, 0xfa,
  0x3c, 0xf0, 0xfd, 0xf6, 0x40, 0xfb, 0x09, 0xfb, 0x2a, 0xf6, 0xfb, 0x11,
  0x25, 0x0b, 0x05, 0x18, 0x34, 0xfb, 0x09, 0x03, 0xfc, 0xf4, 0xfc, 0xfd,
  0xf7, 0xfe, 0x07, 0xf3, 0x05, 0xf7, 0xf8, 0x03, 0xfc, 0x08, 0xf7, 0xf5,
  0xfa, 0xfd, 0x08, 0xf4, 0xfc, 0xfc, 0x02, 0xf1, 0xfe, 0x06, 0xff, 0x0b,
  0xfa, 0xfc, 0xf7, 0x0d, 0x06, 0x00, 0x03, 0x2d, 0x01, 0x0d, 0x01, 0xf9,
  0xc7, 0x0a, 0x09, 0xf9, 0x04, 0x08, 0x07, 0xf4, 0x04, 0xfd, 0xf7, 0xff,
  0x0a, 0x0b, 0x06, 0xf4, 0xfd, 0x0a, 0x15, 0x04, 0x10, 0x03, 0x10, 0xf3,
  0x2e, 0x01, 0xf4, 0xf1, 0x26, 0xf7, 0xfb, 0x02, 0x3f, 0xf5, 0xf9, 0x0c,
  0x0d, 0xf7, 0x01, 0x1d, 0x09, 0xf6, 0xfd, 0x07, 0xff, 0x01, 0xf6, 0x09,
  0xfa, 0xfc, 0xf8, 0x00, 0xfd, 0x04, 0x05, 0x01, 0xff, 0x09, 0xfa, 0x07,
  0x06, 0xfb, 0xf2, 0xf7, 0x0a, 0x02, 0x03, 0x01, 0x0a, 0x01, 0x03, 0xfa,
  0xfb, 0xfa, 0x0b, 0xfc, 0x05, 0xfa, 0x14, 0x06, 0xfa, 0x09, 0x1b, 0x01,
  0xef, 0x0e, 0x0b, 0xfc, 0x00, 0x0f, 0x02, 0xf9, 0xfb, 0xfe, 0x03, 0x1b,
  0xf6, 0x0f, 0x04, 0x05, 0xff, 0x08, 0xfc, 0xf8, 0x00, 0xfc, 0x07, 0xf8,
  0x06, 0xef, 0xff, 0xf7, 0x21, 0xf4, 0xf3, 0xf0, 0x23, 0xfb, 0xf5, 0x11,
  0x04, 0xfc, 0xff, 0x25, 0xfc, 0x01, 0x04, 0x05, 0xde, 0xf8, 0xfa, 0x02,
  0x02, 0x08, 0xf7, 0xf8, 0xfd, 0x06, 0x08, 0x00, 0xe6, 0xff, 0x03, 0xff,
  0xf5, 0x0d, 0x06, 0x00, 0xf5, 0x04, 0x01, 0xf6, 0xfc, 0xfa, 0x02, 0xfc,
  0x08, 0xf9, 0x15, 0x00, 0x0a, 0xfe, 0x09, 0x05, 0x02, 0x14, 0x17, 0xff,
  0xfa, 0x03, 0x16, 0xf9, 0xf8, 0x01, 0x05, 0x07, 0xf9, 0xfa, 0xff, 0x02,
  0x03, 0x00, 0xf6, 0x12, 0xff, 0x0f, 0xfc, 0xfc, 0x04, 0xfe, 0x0a, 0x16,
  0x04, 0xf2, 0xf3, 0x04, 0x03, 0x08, 0x01, 0x09, 0x0a, 0xf0, 0xf6, 0x02,
  0xfc, 0xff, 0xff, 0x16, 0x00, 0x06, 0xfe, 0xff, 0x03, 0x0e, 0x04, 0x08,
  0xff, 0x05, 0x08, 0xff, 0xf7, 0x0b, 0xfc, 0xfe, 0xd8, 0x0a, 0xf1, 0x0c,
  0xf3, 0x00, 0xfe, 0x07, 0xed, 0xfa, 0x02, 0xfc, 0xf1, 0xff, 0x11, 0x0d,
  0xf6, 0xfe, 0x03, 0x07, 0xfd, 0xf8, 0xe5, 0x09, 0xf7, 0x02, 0xeb, 0xf9,
  0xef, 0xf3, 0xe7, 0xfa, 0xfe, 0x06, 0xfa, 0xf5, 0xf2, 0xf8, 0xf4, 0x05,
  0xf8, 0x0d, 0x02, 0x0b, 0xff, 0x07, 0xfe, 0x05, 0xfe, 0x0a, 0xfd, 0x08,
  0x01, 0xf7, 0x09, 0x05, 0xe1, 0xf8, 0x08, 0xff, 0xe2, 0xf7, 0x04, 0x07,
  0xf6, 0x07, 0x04, 0x07, 0xfb, 0x0d, 0x05, 0x00, 0xf6, 0xfb, 0xf6, 0xfd,
  0xf0, 0xfb, 0x09, 0xfe, 0xf1, 0xfb, 0xfd, 0xfe, 0xf0, 0x01, 0x00, 0x0d,
  0xe3, 0x01, 0x01, 0x06, 0xef, 0xfc, 0xfe, 0x06, 0xff, 0x01, 0x15, 0x02,
  0xf4, 0x00, 0xe7, 0xf0, 0x02, 0x09, 0xdf, 0x0a, 0xf8, 0xf8, 0xd6, 0xfe,
  0xfd, 0xfa, 0xcf, 0xfa, 0x06, 0x03, 0xdb, 0xfa, 0xfb, 0xfb, 0xe3, 0x04,
  0xf9, 0xfd, 0xe9, 0x05, 0x08, 0xff, 0xf8, 0xfc, 0xfe, 0x00, 0x03, 0x10,
  0xf9, 0xf9, 0xf8, 0xff, 0xd0, 0x05, 0x07, 0x24, 0x07, 0xf6, 0xfd, 0x05,
  0x01, 0x0b, 0xd8, 0xf8, 0xfc, 0xfa, 0xf5, 0x01, 0x06, 0xf5, 0x20, 0x03,
  0xfc, 0x08, 0xd6, 0x08, 0xfd, 0x02, 0xfe, 0x11, 0xf7, 0x0f, 0x16, 0x11,
  0xff, 0x01, 0x07, 0x12, 0x03, 0xfc, 0xfb, 0x1f, 0x3d, 0x19, 0x04, 0x35,
  0x6e, 0x1c, 0x0a, 0x34, 0x0f, 0x04, 0xf8, 0xfc, 0x27, 0x06, 0xe8, 0xea,
  0x07, 0xf2, 0xcb, 0xed, 0xf9, 0xed, 0xf7, 0xf2, 0xf7, 0xe9, 0xf2, 0x31,
  0x00, 0xe7, 0xee, 0x3e, 0x42, 0xf8, 0xf8, 0x20, 0x18, 0xee, 0xe8, 0x60,
  0x03, 0xef, 0xe7, 0x41, 0x04, 0xeb, 0xea, 0x00, 0xfc, 0x05, 0xf4, 0xf7,
  0x06, 0x0f, 0xe1, 0x03, 0x09, 0x06, 0xfc, 0x03, 0x0b, 0x02, 0xff, 0x03,
  0x0d, 0xf4, 0xea, 0xf6, 0xfb, 0x05, 0xfe, 0xf3, 0x06, 0x02, 0x27, 0x18,
  0x23, 0x07, 0xfc, 0x13, 0x0b, 0x00, 0x08, 0x0a, 0x4e, 0x18, 0x01, 0x29,
  0x4b, 0xe8, 0xf9, 0x23, 0xfd, 0xd5, 0xf6, 0x14, 0xfd, 0xf0, 0xec, 0xef,
  0x03, 0xfe, 0xed, 0xee, 0xfd, 0xf2, 0x20, 0xf3, 0xf9, 0xed, 0xf1, 0xfb,
  0x2f, 0xf9, 0xef, 0x13, 0x58, 0xee, 0xf8, 0xf2, 0x01, 0xeb, 0xef, 0x12,
  0xfb, 0xe3, 0xe8, 0x28, 0x12, 0xff, 0xfd, 0xf2, 0xf6, 0x13, 0x0b, 0x00,
  0xfc, 0x01, 0xdf, 0xf5, 0xfe, 0xfb, 0xe7, 0x09, 0xf8, 0xee, 0xfe, 0x12,
  0x1d, 0xea, 0xf1, 0x32, 0x41, 0xf5, 0xf9, 0x2a, 0x2a, 0xfd, 0x16, 0x3f,
  0x60, 0x07, 0x14, 0x2f, 0x13, 0xff, 0x05, 0x03, 0x48, 0x0b, 0x06, 0x10,
  0x10, 0xf6, 0x01, 0x0b, 0x05, 0xe2, 0x02, 0x09, 0x07, 0xfc, 0xdf, 0x04,
  0xfe, 0xfa, 0xfb, 0xef, 0xfe, 0xf4, 0xa8, 0xf1, 0x04, 0xf9, 0xff, 0xf4,
  0x53, 0xf2, 0xf3, 0xf8, 0x38, 0xee, 0xf1, 0xf0, 0x0d, 0xf3, 0xf9, 0x12,
  0x14, 0xf5, 0xed, 0x2d, 0x1a, 0xf5, 0xfd, 0x1e, 0xfc, 0x0e, 0x05, 0x00,
  0x0b, 0x01, 0x05, 0x08, 0x00, 0xf9, 0xef, 0x14, 0x08, 0x04, 0xf9, 0xf8,
  0x2d, 0xf7, 0xfe, 0x31, 0x65, 0xf8, 0x0d, 0x28, 0x4c, 0x0a, 0x07, 0x2e,
  0x5f, 0x0c, 0xfd, 0x21, 0x32, 0x02, 0x07, 0x12, 0x00, 0xf7, 0x09, 0x0c,
  0x03, 0x06, 0x05, 0x0c, 0x08, 0x07, 0x06, 0x0c, 0xf9, 0xf5, 0x26, 0x0c,
  0xf4, 0xde, 0xff, 0x07, 0xfd, 0xdf, 0xf4, 0xea, 0x01, 0xec, 0xe3, 0xf1,
  0x3c, 0xf4, 0xf0, 0xf6, 0x11, 0xf3, 0xff, 0xf4, 0x03, 0xfd, 0x08, 0xf2,
  0x13, 0xec, 0x04, 0x26, 0x3c, 0xea, 0xe5, 0x43, 0xfc, 0x01, 0xfc, 0x00,
  0x1c, 0xf9, 0xe6, 0x05, 0x10, 0x07, 0xf1, 0xff, 0x13, 0x09, 0xdb, 0xff,
  0x35, 0x02, 0xff, 0x08, 0x53, 0x0b, 0x04, 0x2d, 0x2b, 0x0a, 0x03, 0x18,
  0x3e, 0xfd, 0xff, 0x08, 0x25, 0xfe, 0x0b, 0xf4, 0xfa, 0xfa, 0xff, 0xf3,
  0x03, 0x0e, 0xff, 0x0a, 0xfa, 0x0a, 0xe5, 0x13, 0x0a, 0xfc, 0x14, 0x23,
  0x06, 0x04, 0xf8, 0x06, 0xf7, 0xf3, 0x02, 0x1a, 0x39, 0xf8, 0x11, 0xfa,
  0x03, 0x05, 0xff, 0xf8, 0xfd, 0xf6, 0xf3, 0xf0, 0xff, 0xf7, 0xf8, 0xea,
  0x22, 0xf0, 0xf3, 0xdf, 0x1c, 0xea, 0xcf, 0x36, 0xfb, 0x06, 0x02, 0x02,
  0x3f, 0x12, 0x0f, 0x04, 0x09, 0x06, 0xfe, 0xfe, 0x1a, 0xe9, 0xfe, 0x00,
  0x27, 0x02, 0xf8, 0x02, 0x13, 0x00, 0xfb, 0x17, 0x11, 0x04, 0x07, 0x16,
  0x26, 0xf6, 0x0a, 0xe0, 0x00, 0x07, 0xfd, 0xd2, 0xfe, 0x08, 0x0f, 0xc1,
  0x03, 0x0a, 0x13, 0xce, 0x0b, 0x05, 0xe9, 0x04, 0xf7, 0x00, 0x02, 0x02,
  0xfc, 0x02, 0xfc, 0xd6, 0x06, 0xfe, 0xf3, 0xd7, 0x03, 0x0b, 0x19, 0xbe,
  0x03, 0x19, 0x06, 0xcd, 0x05, 0xfd, 0x09, 0xd1, 0x0d, 0xea, 0x11, 0xe4,
  0x2c, 0xed, 0xf9, 0xf0, 0x1d, 0xd6, 0xd2, 0xf7, 0x05, 0x06, 0x12, 0x0b,
  0x28, 0x01, 0xfb, 0x04, 0x04, 0xf8, 0x01, 0x06, 0x1b, 0x07, 0x0a, 0x02,
  0x31, 0x0e, 0xfe, 0xf1, 0x21, 0xfb, 0xfa, 0x05, 0x13, 0x02, 0xf5, 0x04,
  0x11, 0xfa, 0x0c, 0xf3, 0xfb, 0xff, 0x0c, 0xce, 0x04, 0xfe, 0x08, 0xcf,
  0xf0, 0x0d, 0x00, 0xc9, 0x02, 0x04, 0xff, 0xf4, 0xf6, 0x03, 0x05, 0x06,
  0xe1, 0x06, 0xf6, 0xf1, 0xfc, 0x07, 0xff, 0xe1, 0xfe, 0xff, 0xef, 0xd0,
  0x18, 0x0d, 0x18, 0xc1, 0x03, 0xf4, 0x10, 0xb9, 0x0e, 0xf2, 0x10, 0xe6,
  0x45, 0xee, 0x08, 0xf2, 0x2b, 0xe0, 0xf6, 0xe2, 0x01, 0x08, 0x0a, 0x0f,
  0x1e, 0xfe, 0xf5, 0x0d, 0x1f, 0xff, 0x03, 0x0b, 0x2c, 0xf6, 0xff, 0xfe,
  0x30, 0x05, 0x00, 0x0e, 0x19, 0x05, 0x07, 0xff, 0xef, 0x0b, 0x06, 0xff,
  0xf2, 0xff, 0x0b, 0xf4, 0x0d, 0xff, 0x0f, 0xd2, 0x05, 0x09, 0x0a, 0xc2,
  0xf5, 0x01, 0xf6, 0xbe, 0xfc, 0xeb, 0x01, 0x06, 0x06, 0xf4, 0xfd, 0xf3,
  0xd8, 0x04, 0x00, 0xfe, 0xf8, 0x0d, 0x10, 0x03, 0xfb, 0x12, 0x0a, 0xf4,
  0x19, 0x0b, 0x1f, 0xbf, 0x09, 0xec, 0x1f, 0xc4, 0x3f, 0x04, 0x04, 0xd0,
  0x48, 0xed, 0x03, 0xe7, 0x25, 0xd7, 0x04, 0xdc, 0x28, 0x01, 0xf8, 0x05,
  0x17, 0x0b, 0x0c, 0x00, 0x30, 0xf4, 0xfd, 0x09, 0x15, 0xff, 0xf8, 0x08,
  0x04, 0xfd, 0xfb, 0xfc, 0xff, 0xf4, 0x00, 0x02, 0x00, 0xf9, 0xfa, 0x0e,
  0x04, 0x0f, 0x04, 0xeb, 0xf9, 0x06, 0x02, 0xe9, 0xff, 0xf7, 0xf5, 0xe6,
  0xf9, 0x01, 0x04, 0x09, 0xf6, 0xff, 0x04, 0xd2, 0x04, 0xfc, 0x0d, 0xf4,
  0xb7, 0xfd, 0x0a, 0xee, 0xff, 0x00, 0xfd, 0xec, 0x04, 0x13, 0x0c, 0xf3,
  0x15, 0x23, 0x17, 0x05, 0x00, 0xfb, 0x0d, 0x03, 0x32, 0x15, 0x09, 0x0e,
  0x5d, 0xfd, 0x06, 0xfd, 0x52, 0xe5, 0x06, 0xf0, 0x40, 0xfe, 0x08, 0x12,
  0x31, 0xfb, 0xee, 0x20, 0x38, 0x01, 0x07, 0x02, 0xfd, 0xf3, 0x01, 0xff,
  0xfa, 0x03, 0xfe, 0x07, 0x07, 0xf8, 0x02, 0x04, 0x01, 0x04, 0xf7, 0x05,
  0x00, 0xf6, 0x08, 0x03, 0x0c, 0x02, 0x05, 0xec, 0xf9, 0x00, 0xf2, 0x13,
  0x00, 0x06, 0x07, 0x04, 0xf8, 0x0e, 0x01, 0x42, 0xfa, 0x15, 0x13, 0xfb,
  0xab, 0x14, 0x0e, 0x02, 0xf2, 0x0f, 0xff, 0xc7, 0xfc, 0x0d, 0x00, 0xd1,
  0x05, 0x14, 0xfb, 0xdf, 0xe8, 0x13, 0x10, 0xdf, 0x06, 0x14, 0x12, 0xdd,
  0x4d, 0xf0, 0xf1, 0xf1, 0x34, 0xea, 0xfb, 0x07, 0x4c, 0xff, 0xfa, 0x17,
  0x16, 0x09, 0xf9, 0x29, 0x1e, 0x02, 0xf2, 0x1c, 0xfc, 0xff, 0x03, 0xff,
  0xf4, 0x01, 0xf9, 0x0b, 0xfd, 0x04, 0xf3, 0xfe, 0x01, 0x08, 0xfc, 0xf6,
  0xfe, 0xfe, 0xf6, 0x08, 0x03, 0xfd, 0x00, 0x03, 0xf8, 0x0b, 0xff, 0x0b,
  0x00, 0x11, 0x04, 0x06, 0xff, 0xff, 0x12, 0x0a, 0xfc, 0x08, 0x25, 0xf6,
  0xe8, 0x17, 0x07, 0xf8, 0xf4, 0x18, 0x02, 0x07, 0xfb, 0x16, 0xfb, 0x22,
  0xf1, 0x15, 0x0f, 0xfe, 0xf8, 0xf8, 0x0f, 0x05, 0x00, 0xfc, 0x00, 0xe8,
  0x06, 0xec, 0x03, 0xfe, 0x2a, 0xff, 0xf4, 0xff, 0x25, 0xf7, 0x00, 0x0d,
  0xff, 0xfb, 0xfc, 0x2a, 0x06, 0x00, 0xf1, 0x12, 0xc0, 0x08, 0xed, 0x00,
  0xfe, 0x02, 0x06, 0x03, 0x03, 0x09, 0xfc, 0xf8, 0xe0, 0x03, 0xf3, 0x0e,
  0xf4, 0x05, 0x0f, 0xf2, 0xf0, 0xfc, 0x04, 0xff, 0xf0, 0x04, 0x06, 0x03,
  0x03, 0xfe, 0x0b, 0x03, 0x05, 0x01, 0x11, 0x03, 0xff, 0x1d, 0x16, 0xf7,
  0xfa, 0x13, 0x1a, 0x05, 0x02, 0x0a, 0x0a, 0x04, 0xfc, 0xfb, 0x01, 0x02,
  0x00, 0x11, 0x0a, 0x0d, 0xfb, 0x04, 0x02, 0x14, 0x01, 0xf8, 0x0c, 0x17,
  0xfc, 0xfd, 0xff, 0x0e, 0xfc, 0x00, 0x0b, 0xf7, 0xf9, 0xfe, 0xef, 0x13,
  0xf7, 0xf4, 0xfa, 0x11, 0x03, 0x04, 0xed, 0x08, 0xf9, 0x1b, 0xf4, 0xf7,
  0xf8, 0x07, 0xf8, 0x02, 0xeb, 0x06, 0xff, 0xff, 0xd8, 0x0e, 0xfe, 0x23,
  0xf3, 0xfc, 0x07, 0x07, 0xf3, 0xfb, 0x02, 0x0d, 0xfa, 0x08, 0x10, 0x0e,
  0xfb, 0xf9, 0x04, 0xf7, 0xfd, 0x06, 0xd6, 0x0c, 0xf5, 0xf2, 0xe8, 0xed,
  0xfe, 0xea, 0xd0, 0x00, 0x06, 0x00, 0xe2, 0x02, 0xf5, 0x10, 0xe9, 0xfd,
  0xec, 0xfd, 0xf5, 0xf9, 0x00, 0x04, 0xfd, 0xf9, 0xf9, 0xf6, 0xfa, 0xfe,
  0x05, 0x02, 0x07, 0xfa, 0xd7, 0xfb, 0x02, 0x02, 0xe1, 0xfa, 0x06, 0x11,
  0xfe, 0xfb, 0x03, 0xff, 0xf9, 0xfa, 0x00, 0x0a, 0xfc, 0x01, 0xfc, 0xf8,
  0xfd, 0x04, 0x09, 0xfd, 0xef, 0x06, 0xfa, 0x07, 0xde, 0xfe, 0xf6, 0x06,
  0xdf, 0x05, 0x03, 0x02, 0xf8, 0x01, 0x01, 0x05, 0xf3, 0x05, 0x08, 0x0f,
  0xf4, 0x0d, 0xe0, 0xe3, 0x09, 0x02, 0xcf, 0x04, 0xf5, 0x0d, 0xd1, 0xee,
  0x01, 0xfe, 0xbe, 0x00, 0x06, 0x0f, 0xc1, 0x04, 0xf0, 0x01, 0xbf, 0xfc,
  0xf8, 0x03, 0xd3, 0x05, 0x04, 0xf6, 0x00, 0xf9, 0xeb, 0xfa, 0x0b, 0x0e,
  0xf5, 0xfd, 0x06, 0x01, 0xca, 0xfc, 0xf9, 0x33, 0x01, 0x02, 0x0d, 0xf9,
  0x0c, 0xfc, 0x0b, 0x08, 0x04, 0x02, 0x00, 0x0b, 0x05, 0xfc, 0xfb, 0xf4,
  0x04, 0xf4, 0x1d, 0xf6, 0xfc, 0xfa, 0x04, 0xf9, 0x15, 0xfc, 0xef, 0xf3,
  0xf8, 0xf5, 0x03, 0xfd, 0x01, 0x05, 0x0f, 0xed, 0xc5, 0xf4, 0xff, 0xe5,
  0xa4, 0xec, 0x05, 0xf1, 0xeb, 0xfd, 0xfc, 0xff, 0xe1, 0xf9, 0x12, 0x17,
  0x06, 0x14, 0x23, 0x08, 0xf5, 0x0a, 0x05, 0x09, 0xfa, 0x0f, 0x09, 0xdd,
  0xf7, 0xff, 0x0f, 0xed, 0xce, 0x02, 0x0b, 0xee, 0xf5, 0x01, 0x11, 0xdf,
  0x00, 0x08, 0x06, 0xe7, 0xfb, 0x04, 0x09, 0x08, 0x02, 0x01, 0x12, 0x12,
  0xf9, 0xf8, 0x0e, 0x07, 0xff, 0xfa, 0xf7, 0xfc, 0xf7, 0x05, 0x07, 0x00,
  0xf9, 0x01, 0x0b, 0x02, 0xfe, 0x07, 0x06, 0x12, 0xfd, 0xf6, 0xf6, 0xe6,
  0xef, 0xf1, 0xf1, 0xf7, 0xe7, 0xfb, 0x00, 0xfb, 0xba, 0xfa, 0xfc, 0xef,
  0xc3, 0x17, 0x09, 0xf3, 0x05, 0x1a, 0x11, 0xf7, 0xf7, 0x0b, 0x1a, 0x03,
  0x06, 0xff, 0x0e, 0x0f, 0xfc, 0x0a, 0xe9, 0x02, 0xfb, 0x15, 0xf8, 0x06,
  0xd8, 0x0e, 0x0a, 0xf9, 0xcb, 0x0e, 0x09, 0x08, 0x0a, 0x09, 0x02, 0x00,
  0xf9, 0x0d, 0x04, 0xed, 0xf7, 0xfc, 0x09, 0x0a, 0x09, 0xf9, 0xf3, 0x0b,
  0x07, 0xf9, 0x0e, 0x05, 0xfb, 0x00, 0x14, 0x09, 0xfc, 0x09, 0xfd, 0xf3,
  0xec, 0x0c, 0x08, 0xea, 0xcc, 0x0b, 0xfb, 0xe4, 0xd9, 0xf3, 0xec, 0xd6,
  0xc7, 0xfb, 0xf7, 0xf1, 0xed, 0xf3, 0x05, 0x0a, 0xcb, 0x08, 0x07, 0xf5,
  0xef, 0x08, 0x08, 0x03, 0x06, 0x1e, 0x00, 0x07, 0xf9, 0x03, 0x0c, 0x05,
  0xfd, 0x04, 0xfd, 0x00, 0xfa, 0x0b, 0x3c, 0x06, 0xfb, 0x04, 0xfe, 0x11,
  0xd5, 0x0e, 0xff, 0x10, 0xd2, 0x0c, 0x03, 0x0b, 0xfc, 0x03, 0x02, 0x05,
  0x00, 0x09, 0x0d, 0xf9, 0xf2, 0xfc, 0x05, 0xf4, 0xfe, 0x02, 0xf5, 0x08,
  0xfc, 0xfc, 0x0c, 0xfe, 0x05, 0x02, 0x07, 0xf3, 0xf8, 0xf6, 0x06, 0xf9,
  0xe1, 0xfb, 0x07, 0xe4, 0xba, 0xfa, 0xf6, 0xfc, 0xcd, 0x09, 0xf2, 0xe7,
  0xbe, 0xfe, 0xf4, 0xf4, 0xe0, 0xf5, 0x02, 0xee, 0xf1, 0x01, 0xff, 0x05,
  0x01, 0xfe, 0x07, 0x00, 0x00, 0xfe, 0xfb, 0xf7, 0xfd, 0xfc, 0xeb, 0xfa,
  0xf7, 0x09, 0x02, 0xf1, 0x02, 0x0d, 0x0b, 0x0c, 0xfe, 0x08, 0x0f, 0xf9,
  0xe2, 0x0b, 0x04, 0x00, 0xff, 0xfc, 0xf7, 0xfb, 0x0d, 0xfd, 0x03, 0x11,
  0xf7, 0xfb, 0xfc, 0xf3, 0xd9, 0x0a, 0x0b, 0xd3, 0x04, 0x04, 0x04, 0x03,
  0xea, 0x05, 0x0f, 0xfc, 0xf1, 0xfa, 0x0f, 0x05, 0xeb, 0x09, 0x18, 0x0a,
  0xcd, 0x0b, 0x04, 0xfd, 0xc4, 0xf6, 0xf7, 0xde, 0xf4, 0x03, 0x00, 0xf8,
  0xd7, 0x03, 0x05, 0xf6, 0xf2, 0x06, 0xff, 0x04, 0xf7, 0xfa, 0x05, 0x01,
  0x08, 0xf4, 0x06, 0xf4, 0x00, 0x05, 0x0a, 0xf4, 0xf4, 0x03, 0xf0, 0xfd,
  0x02, 0x04, 0xf7, 0x04, 0x0c, 0x01, 0xf8, 0xf6, 0xe7, 0xfc, 0xf3, 0x0d,
  0xf0, 0x01, 0x01, 0x0b, 0xfc, 0x0a, 0x0c, 0x03, 0xf5, 0x06, 0x0b, 0x13,
  0xe2, 0x01, 0x17, 0x0e, 0xed, 0x05, 0x19, 0xe2, 0xfb, 0x04, 0xfb, 0xfa,
  0xdc, 0xff, 0xf8, 0xfd, 0x00, 0xf9, 0xfc, 0x09, 0xf4, 0x12, 0xf6, 0xfe,
  0xe8, 0x0a, 0x03, 0x04, 0xed, 0xff, 0x00, 0xf9, 0xef, 0x08, 0xf9, 0xe6,
  0xe3, 0x08, 0xfd, 0x14, 0x08, 0x01, 0xfc, 0x20, 0x04, 0x03, 0xf8, 0x26,
  0x05, 0xfd, 0xf1, 0x14, 0xfa, 0xf5, 0xff, 0x00, 0xfc, 0x03, 0x04, 0xfd,
  0x00, 0xf9, 0xf9, 0x1e, 0xf2, 0x01, 0x08, 0x1e, 0xf8, 0x0a, 0x02, 0x2c,
  0x03, 0xf0, 0xf9, 0x18, 0xfa, 0x07, 0x02, 0x24, 0xf6, 0x10, 0xf6, 0x0d,
  0xd7, 0xfe, 0x12, 0x0e, 0xe5, 0x14, 0x25, 0xfa, 0x01, 0x04, 0xfc, 0x03,
  0xd8, 0xfc, 0xfe, 0x08, 0xff, 0x03, 0xfc, 0x07, 0xf4, 0xf7, 0xff, 0x00,
  0xd9, 0xfd, 0xfa, 0x0d, 0xdf, 0xff, 0x00, 0xf1, 0xfe, 0x08, 0x08, 0xf5,
  0xf5, 0xfe, 0xf6, 0x0f, 0xff, 0x00, 0xf1, 0x1b, 0xfb, 0xf5, 0xfa, 0x1f,
  0x03, 0xff, 0xf8, 0x2e, 0xf7, 0x04, 0x0d, 0xfc, 0xfe, 0x08, 0x04, 0x02,
  0x1b, 0x03, 0xfe, 0x08, 0x07, 0xfa, 0x0f, 0x12, 0x03, 0xfa, 0x05, 0x26,
  0xeb, 0xf4, 0xe9, 0x32, 0x08, 0x07, 0xfb, 0x36, 0xf5, 0xf8, 0xef, 0xfe,
  0xd2, 0x15, 0x05, 0xfc, 0xdc, 0x0d, 0xfd, 0x12, 0x0d, 0xff, 0x00, 0xf9,
  0xf6, 0x0b, 0x0a, 0xfe, 0xf4, 0xf9, 0x02, 0xf5, 0xd9, 0xfb, 0xfc, 0xf5,
  0xde, 0xff, 0xfd, 0xf9, 0xe7, 0x01, 0x0b, 0x03, 0x0e, 0x08, 0xf7, 0xff,
  0x00, 0xfa, 0xf5, 0x0f, 0x04, 0x07, 0xff, 0x10, 0xfa, 0xf6, 0x0a, 0x24,
  0x04, 0xfb, 0x03, 0x1f, 0x0a, 0x01, 0x06, 0xfd, 0x00, 0x0a, 0x08, 0x02,
  0x27, 0x09, 0x09, 0xf5, 0xfe, 0xf9, 0xf7, 0x01, 0xf7, 0xf0, 0xf7, 0x0b,
  0xf6, 0xef, 0xe9, 0x24, 0xf9, 0x11, 0xfd, 0x2a, 0xda, 0xfe, 0xf1, 0x11,
  0xbf, 0x00, 0xf9, 0x17, 0xe9, 0x22, 0xfb, 0x20, 0xef, 0xfb, 0x05, 0xf2,
  0xe8, 0x00, 0xf9, 0xf3, 0xe6, 0x07, 0xf5, 0x04, 0xf3, 0x02, 0xf6, 0xf8,
  0xff, 0x02, 0xfc, 0x0b, 0xff, 0xfd, 0x04, 0xfb, 0x03, 0xf9, 0x03, 0xf5,
  0x05, 0x02, 0xfd, 0x0b, 0x06, 0xfc, 0x03, 0x09, 0x08, 0xfa, 0xfd, 0x0b,
  0x0c, 0x0b, 0xfc, 0x00, 0x04, 0x06, 0xfa, 0x12, 0xfe, 0x0b, 0xfc, 0x08,
  0x3d, 0xf4, 0xf0, 0x0a, 0x04, 0xf9, 0x07, 0x09, 0xff, 0xf7, 0xf7, 0x0e,
  0xfe, 0xf7, 0xf3, 0x0d, 0xf4, 0x06, 0x09, 0x03, 0xdc, 0xfa, 0xfc, 0xf6,
  0xc3, 0x11, 0xf7, 0x04, 0xd3, 0x10, 0x08, 0x07, 0xdf, 0x04, 0x06, 0xf3,
  0xdf, 0x07, 0x00, 0xe9, 0xd0, 0x00, 0x06, 0xfa, 0xf3, 0xfc, 0xfb, 0x00,
  0xfc, 0xf7, 0x0d, 0x03, 0xfd, 0xfd, 0x0b, 0xf4, 0x08, 0x06, 0x06, 0x09,
  0x03, 0x09, 0xfa, 0xf9, 0xf9, 0xf9, 0xfb, 0x09, 0x08, 0x00, 0x11, 0xf7,
  0x09, 0x0c, 0x0b, 0xf8, 0x07, 0xfc, 0xfe, 0xd6, 0xff, 0xf4, 0xf8, 0x0b,
  0x2f, 0xfc, 0xfa, 0xf9, 0x03, 0xf3, 0xf8, 0x0a, 0x0a, 0x03, 0x03, 0x15,
  0x0c, 0xff, 0xf4, 0x0b, 0x05, 0xfc, 0xea, 0x0a, 0xee, 0x00, 0xec, 0x0c,
  0xc0, 0x03, 0x0a, 0x0b, 0xe3, 0x0f, 0x06, 0x07, 0xd2, 0x02, 0x11, 0xfa,
  0xe9, 0x09, 0x06, 0xe3, 0xe3, 0x06, 0x08, 0xe4, 0xf4, 0x09, 0x02, 0x04,
  0x05, 0x04, 0x0b, 0xf6, 0x0b, 0xee, 0x07, 0xef, 0xfb, 0x04, 0xf7, 0xff,
  0x05, 0x05, 0xfa, 0xfa, 0xf8, 0x08, 0x05, 0x08, 0xfb, 0xfc, 0x03, 0xff,
  0x04, 0xf8, 0xf6, 0xfa, 0x07, 0xf5, 0xf2, 0xf9, 0x03, 0x00, 0xe3, 0xf8,
  0x0f, 0xf9, 0x02, 0x04, 0x01, 0xf2, 0xf1, 0x09, 0x0b, 0xfd, 0xff, 0xe6,
  0x08, 0xf6, 0xf0, 0xf6, 0xfb, 0xfb, 0xf6, 0xff, 0xfb, 0x04, 0xf5, 0x04,
  0xfd, 0x07, 0xf9, 0x03, 0xee, 0x08, 0x06, 0x0f, 0xd8, 0x05, 0x0a, 0xf7,
  0x0b, 0xff, 0xf8, 0xe8, 0xfd, 0xff, 0x07, 0x02, 0x2f, 0x01, 0x04, 0x08,
  0xfb, 0xf9, 0x0a, 0x04, 0xf0, 0xfc, 0xfb, 0x05, 0x12, 0x08, 0x0a, 0xfe,
  0x0a, 0xfc, 0x05, 0x0a, 0x03, 0xfc, 0x08, 0x02, 0x12, 0x05, 0xf9, 0x0a,
  0x03, 0x04, 0xfd, 0xf7, 0xf6, 0x04, 0xfc, 0xff, 0x06, 0xef, 0xfb, 0x0c,
  0xfa, 0xf7, 0xfe, 0x09, 0x09, 0xfc, 0xf3, 0x04, 0x00, 0xfd, 0xfb, 0x01,
  0x01, 0x03, 0x07, 0xf7, 0x0a, 0xf2, 0xf7, 0xf2, 0xfc, 0x0e, 0xfb, 0xf2,
  0x06, 0x03, 0xfb, 0xfc, 0x0c, 0x0b, 0x01, 0x03, 0x05, 0xfe, 0x0b, 0xf8,
  0xff, 0x05, 0x04, 0xfb, 0x0b, 0x06, 0x00, 0xf9, 0x06, 0xf4, 0x0b, 0xfc,
  0x03, 0x04, 0x03, 0xfc, 0x0c, 0xfd, 0xf4, 0x06, 0x20, 0xff, 0x03, 0xf1,
  0x03, 0x03, 0xfa, 0xfa, 0x07, 0xf4, 0xff, 0xf1, 0x0f, 0x04, 0x02, 0x04,
  0xfb, 0x04, 0xf5, 0x03, 0x01, 0x05, 0x18, 0xf4, 0x0d, 0xfa, 0x0c, 0x08,
  0x06, 0xfe, 0x22, 0x06, 0xfa, 0xf6, 0x12, 0xff, 0x05, 0xfa, 0x01, 0xf4,
  0x08, 0x01, 0x0a, 0x04, 0xf9, 0x07, 0xf6, 0x08, 0xfa, 0x08, 0x00, 0x06,
  0x0e, 0x0f, 0x06, 0xf8, 0x19, 0x11, 0x07, 0xff, 0x0c, 0xfe, 0x01, 0xfb,
  0x08, 0xfd, 0xfb, 0xfb, 0x01, 0xf8, 0x04, 0xff, 0x0e, 0x00, 0xfc, 0xfe,
  0x0b, 0x02, 0xfd, 0xf5, 0x0b, 0xf1, 0x07, 0x03, 0x10, 0x00, 0xf8, 0x07,
  0x10, 0xfb, 0x00, 0x00, 0x05, 0x06, 0xfe, 0xf3, 0x00, 0xf2, 0xf9, 0x01,
  0xfb, 0x02, 0x0c, 0x0b, 0xf8, 0xf1, 0x26, 0xf7, 0x08, 0x07, 0x19, 0x0b,
  0xf2, 0x08, 0x32, 0x03, 0x0d, 0xfa, 0x25, 0x08, 0x07, 0x00, 0x29, 0xfd,
  0xfc, 0xf2, 0x13, 0xfe, 0xfe, 0xfd, 0x04, 0x06, 0x0d, 0xf1, 0xfe, 0xf0,
  0x10, 0x07, 0xf6, 0xf8, 0x2a, 0xf6, 0xfe, 0xeb, 0x08, 0xf4, 0xee, 0x01,
  0xfb, 0x13, 0xeb, 0xf0, 0x04, 0xfa, 0xfe, 0xfb, 0x06, 0x03, 0x0f, 0x0b,
  0x09, 0x03, 0xe9, 0x05, 0x01, 0x08, 0x07, 0x09, 0xfa, 0x06, 0x0b, 0x09,
  0x0a, 0x0e, 0xff, 0x07, 0x05, 0x01, 0xfd, 0x27, 0x3e, 0x0b, 0x02, 0x2b,
  0x66, 0x1a, 0xfb, 0x20, 0x0a, 0x10, 0xff, 0xf9, 0x24, 0x16, 0xe7, 0xef,
  0x01, 0xef, 0xd0, 0xf4, 0xf9, 0xf2, 0xf8, 0xf6, 0x09, 0xf9, 0xf1, 0x37,
  0xfc, 0xfa, 0xf6, 0x22, 0x33, 0xe8, 0xf8, 0x16, 0x01, 0xe9, 0xf2, 0x4e,
  0xfc, 0xf1, 0xf2, 0x2f, 0xfd, 0xe7, 0xf9, 0xf5, 0xf7, 0x12, 0xf4, 0xfd,
  0xfa, 0x14, 0xef, 0xf7, 0xfa, 0x00, 0x11, 0x0d, 0x08, 0xf9, 0x02, 0xfe,
  0x02, 0xfe, 0xf3, 0xfa, 0xff, 0xfb, 0x03, 0xf8, 0x07, 0xff, 0x13, 0x21,
  0x1b, 0x02, 0x06, 0x09, 0x0c, 0x0c, 0xf4, 0x03, 0x46, 0x0a, 0xf9, 0x25,
  0x42, 0xe9, 0xef, 0x24, 0x05, 0xcf, 0xed, 0x09, 0x0a, 0xf9, 0xed, 0xf0,
  0xfb, 0x03, 0xe3, 0xf9, 0x03, 0xfa, 0x1c, 0xfb, 0xfc, 0xf9, 0xfa, 0xf6,
  0x27, 0xef, 0xf8, 0x14, 0x44, 0xe5, 0xef, 0x03, 0xfe, 0xf3, 0xfc, 0x06,
  0x06, 0xf8, 0xed, 0x19, 0x15, 0xfb, 0xf2, 0xfd, 0x04, 0x0b, 0x0c, 0xf7,
  0xfc, 0x0f, 0xea, 0x03, 0x0e, 0x01, 0xe7, 0x0b, 0xf6, 0xef, 0x09, 0x0d,
  0x12, 0xea, 0xff, 0x22, 0x3f, 0xf3, 0x05, 0x2d, 0x33, 0x0a, 0x23, 0x44,
  0x5e, 0x0a, 0x0f, 0x23, 0x0e, 0x0c, 0xff, 0x03, 0x40, 0xf7, 0xf2, 0x11,
  0x12, 0xe7, 0xf3, 0x12, 0xfc, 0xe4, 0x00, 0x03, 0xfb, 0x02, 0xe9, 0x01,
  0x09, 0x02, 0xff, 0xea, 0x0f, 0x00, 0xa7, 0xf1, 0xf5, 0xf3, 0x05, 0xeb,
  0x3f, 0xf7, 0x04, 0xee, 0x22, 0xf0, 0xf3, 0xfd, 0xfa, 0xf5, 0xf4, 0x15,
  0x11, 0xfe, 0xf0, 0x2a, 0x1d, 0x05, 0xfa, 0x16, 0xf8, 0x13, 0xfa, 0xfc,
  0x09, 0xf6, 0xff, 0x07, 0x03, 0x02, 0xee, 0x0e, 0x0d, 0xfe, 0x04, 0x04,
  0x23, 0x03, 0xf1, 0x26, 0x56, 0xf9, 0x0c, 0x15, 0x54, 0xfb, 0x0b, 0x20,
  0x4b, 0xf9, 0x01, 0x1a, 0x22, 0xfc, 0x03, 0x18, 0xff, 0xf4, 0xfe, 0x0c,
  0x02, 0xf2, 0xff, 0x0a, 0xfb, 0x08, 0x03, 0x0a, 0xf9, 0x03, 0x14, 0x04,
  0x00, 0xea, 0xf9, 0x10, 0x0b, 0xe1, 0xf2, 0xf8, 0xf8, 0xff, 0xf6, 0xfb,
  0x26, 0x07, 0xfd, 0xfe, 0x0d, 0xf5, 0x05, 0xf8, 0xf5, 0xf8, 0x03, 0xea,
  0x0f, 0xfa, 0xf0, 0x25, 0x2e, 0xf0, 0xf9, 0x31, 0xed, 0x00, 0xee, 0x12,
  0x11, 0xf9, 0xf5, 0x03, 0x09, 0xfe, 0xef, 0xf5, 0x14, 0x0c, 0xde, 0xff,
  0x34, 0xf2, 0xef, 0x06, 0x4a, 0xff, 0xfe, 0x23, 0x23, 0xfb, 0xf8, 0x16,
  0x3b, 0x06, 0x07, 0x05, 0x14, 0xf9, 0x02, 0xfb, 0xfb, 0x02, 0x04, 0xe9,
  0x09, 0x09, 0xfd, 0xff, 0x06, 0x0a, 0xf0, 0x04, 0x02, 0x03, 0x05, 0x17,
  0x06, 0xfe, 0xf6, 0x10, 0xfc, 0xf5, 0x04, 0x0a, 0x2c, 0x02, 0x01, 0xee,
  0x10, 0x09, 0x05, 0xee, 0x05, 0xfb, 0xff, 0xff, 0x00, 0xf9, 0x07, 0xeb,
  0x25, 0xf1, 0xf1, 0xed, 0x22, 0xf3, 0xdb, 0x2f, 0xff, 0x0d, 0xfa, 0x10,
  0x3c, 0x0b, 0x09, 0xfe, 0x05, 0xfc, 0x0d, 0x06, 0x0f, 0xf4, 0x05, 0xf3,
  0x1e, 0x03, 0xf5, 0xfa, 0x1f, 0x01, 0xf9, 0x19, 0x13, 0xf9, 0x03, 0x1f,
  0x22, 0xfa, 0x0a, 0xe9, 0xf2, 0x08, 0x0c, 0xd3, 0xfe, 0x0d, 0x0c, 0xc6,
  0xf8, 0x08, 0x09, 0xdf, 0x07, 0x00, 0xfb, 0xf8, 0x08, 0xf6, 0x04, 0x03,
  0xec, 0x03, 0xfe, 0xdb, 0x07, 0xfd, 0xfb, 0xd9, 0x09, 0x0a, 0x02, 0xce,
  0xf5, 0x0b, 0x0e, 0xde, 0x06, 0xff, 0x08, 0xd4, 0x0f, 0xfe, 0x05, 0xf6,
  0x2c, 0xf5, 0xe9, 0xfb, 0x17, 0xea, 0xcd, 0xf7, 0xf8, 0x08, 0x09, 0x0a,
  0x27, 0x06, 0x00, 0xff, 0x13, 0xfb, 0x05, 0xfc, 0x0e, 0x02, 0x0d, 0x01,
  0x26, 0x08, 0xfc, 0xf6, 0x28, 0xfb, 0xf5, 0x02, 0x11, 0xfc, 0x05, 0x0e,
  0x14, 0xfc, 0x0d, 0xf1, 0x04, 0xfe, 0x07, 0xdc, 0x02, 0x0c, 0x0b, 0xd8,
  0xef, 0xfd, 0xfa, 0xd6, 0x0d, 0x06, 0xfd, 0x02, 0x06, 0xfe, 0x0b, 0xff,
  0xdc, 0xfd, 0x03, 0xf1, 0xfd, 0xfd, 0xef, 0xea, 0xf9, 0xff, 0xf8, 0xc8,
  0x10, 0x15, 0x14, 0xc5, 0x0c, 0xfb, 0x0f, 0xcc, 0x0b, 0x03, 0x12, 0xf6,
  0x43, 0xed, 0x05, 0x00, 0x2f, 0xe0, 0xf4, 0xf8, 0x01, 0xfa, 0x0c, 0x09,
  0x10, 0x02, 0xf5, 0xfb, 0x0c, 0x08, 0xfb, 0xfb, 0x2f, 0xf7, 0x02, 0xfa,
  0x2c, 0xfc, 0xf9, 0x03, 0x18, 0x01, 0x08, 0x06, 0xf0, 0x05, 0x00, 0x02,
  0xf4, 0x09, 0x0a, 0xf4, 0x0d, 0x08, 0x01, 0xda, 0x07, 0x05, 0x0b, 0xcf,
  0xe8, 0xf9, 0xfe, 0xd6, 0x02, 0xf2, 0xfc, 0xf0, 0xf8, 0xf3, 0xf4, 0xff,
  0xd5, 0xf8, 0xf6, 0xfc, 0x02, 0x08, 0x08, 0x02, 0xfe, 0x07, 0x00, 0xe7,
  0x0a, 0x05, 0x19, 0xd4, 0xfa, 0xf1, 0x13, 0xc7, 0x37, 0x03, 0x0f, 0xe3,
  0x45, 0xf2, 0xfc, 0xea, 0x20, 0xd4, 0xfa, 0xe7, 0x10, 0xf2, 0xf8, 0x0b,
  0x22, 0xfb, 0x02, 0x02, 0x26, 0x06, 0x01, 0x0a, 0x1f, 0xf9, 0x04, 0xfb,
  0xfa, 0xff, 0xfb, 0x04, 0xfb, 0xff, 0xf6, 0x00, 0x05, 0x00, 0x04, 0x0b,
  0xff, 0x0e, 0xf9, 0xe8, 0x00, 0x07, 0xfb, 0xfa, 0x09, 0x05, 0x02, 0xe3,
  0xfb, 0x02, 0x0e, 0x03, 0x06, 0x03, 0xf8, 0xe2, 0xfb, 0xef, 0x09, 0xf8,
  0xb8, 0x06, 0x08, 0xec, 0xf6, 0x0e, 0xfb, 0xfa, 0xf7, 0xfd, 0x05, 0xe8,
  0x00, 0x11, 0x14, 0x05, 0x01, 0xf2, 0xfc, 0x0a, 0x31, 0x05, 0x0f, 0x01,
  0x4d, 0xee, 0x01, 0xf1, 0x3b, 0xf2, 0xfd, 0xfb, 0x36, 0xfc, 0xfe, 0x0d,
  0x31, 0x01, 0xf9, 0x11, 0x38, 0x03, 0xfc, 0xfa, 0x06, 0x07, 0x05, 0x07,
  0xf3, 0x07, 0xf5, 0xfa, 0x06, 0xfe, 0xff, 0xf9, 0x04, 0x0b, 0x04, 0x04,
  0xfb, 0xfb, 0x13, 0xff, 0x00, 0x0b, 0x00, 0xf8, 0x05, 0xff, 0xf7, 0x0f,
  0xf5, 0xf6, 0x05, 0x05, 0x03, 0x13, 0xf9, 0x31, 0xfe, 0x12, 0x0f, 0xf0,
  0xba, 0x17, 0x06, 0xf8, 0xfc, 0x06, 0xf4, 0xd7, 0x04, 0x06, 0x05, 0xec,
  0xfd, 0x0d, 0x02, 0xdd, 0xef, 0x0e, 0x10, 0xf7, 0x17, 0x08, 0x0b, 0xee,
  0x45, 0x02, 0xf6, 0xf2, 0x2e, 0xfd, 0x06, 0x0b, 0x48, 0xf8, 0xff, 0x0e,
  0x17, 0xfa, 0xfd, 0x17, 0x0b, 0xfb, 0xf8, 0x0f, 0x0a, 0x04, 0xf5, 0xfd,
  0xf5, 0xf7, 0x07, 0x0e, 0x05, 0x09, 0xfd, 0xfd, 0x03, 0xfd, 0x07, 0x05,
  0xf2, 0x01, 0xf4, 0x04, 0x09, 0x03, 0xef, 0xf9, 0xf8, 0xff, 0xf8, 0xfc,
  0xff, 0x03, 0x0b, 0x04, 0x05, 0x0a, 0x08, 0xfd, 0x03, 0x07, 0x15, 0x04,
  0xee, 0x0b, 0x0f, 0xfd, 0xfb, 0x12, 0x01, 0x06, 0x04, 0x13, 0x0d, 0x15,
  0xf0, 0x16, 0x10, 0x00, 0x00, 0xfc, 0x06, 0xfe, 0x08, 0xfe, 0x0f, 0xec,
  0x08, 0xf5, 0xf3, 0xfa, 0x28, 0xfc, 0xf1, 0xfd, 0x1d, 0xfd, 0xf9, 0x14,
  0xf8, 0x05, 0xfa, 0x21, 0x00, 0xf8, 0xf7, 0x09, 0xd6, 0xfa, 0xf3, 0x0a,
  0xfe, 0x06, 0x02, 0x02, 0x05, 0x0f, 0xfd, 0x08, 0xed, 0x03, 0xf6, 0xfb,
  0xfa, 0x0c, 0x02, 0xfe, 0xfe, 0x05, 0xfb, 0x05, 0xf1, 0xfc, 0x0d, 0x04,
  0xf5, 0x02, 0x09, 0x03, 0x07, 0x01, 0x11, 0x07, 0x0b, 0x0e, 0x18, 0xfa,
  0x0c, 0xff, 0x0c, 0xfc, 0xf6, 0x0b, 0x04, 0x07, 0x06, 0x08, 0xfc, 0xfb,
  0x01, 0x0a, 0xf7, 0x12, 0xff, 0x03, 0xfc, 0x0b, 0xfd, 0xf6, 0xfc, 0x10,
  0x06, 0xff, 0xff, 0x0b, 0xf7, 0x01, 0x05, 0xf9, 0xf6, 0xf0, 0xfc, 0x13,
  0xf1, 0xfe, 0xf8, 0x05, 0xff, 0x05, 0xfa, 0xfd, 0xfe, 0x0a, 0xfd, 0x04,
  0xff, 0x02, 0xf6, 0xfa, 0xe8, 0x02, 0x0f, 0x06, 0xd6, 0x0b, 0xed, 0x1a,
  0xf2, 0x09, 0x03, 0x0f, 0xee, 0x07, 0x11, 0x03, 0xf3, 0x05, 0x0e, 0x08,
  0xfd, 0x0b, 0xfd, 0x02, 0x0b, 0x0c, 0xe0, 0xfd, 0xf8, 0x00, 0xdc, 0xee,
  0xf3, 0xe9, 0xe2, 0xfe, 0x04, 0x04, 0xee, 0xfa, 0x00, 0xfe, 0x02, 0xfa,
  0xe4, 0x06, 0xf7, 0xf7, 0x0a, 0x06, 0x06, 0xf3, 0xfd, 0x03, 0x01, 0x0b,
  0xf3, 0xf6, 0x04, 0x03, 0xed, 0xfc, 0x03, 0x00, 0xf0, 0xff, 0xfb, 0x05,
  0x05, 0xf7, 0xf3, 0x07, 0xf9, 0x0e, 0x04, 0xf8, 0x02, 0x0b, 0xf8, 0x0a,
  0xf4, 0xf7, 0xf9, 0x07, 0xe5, 0xff, 0xfd, 0x03, 0xe8, 0x01, 0xf6, 0x08,
  0xe7, 0x02, 0x01, 0xf7, 0xfd, 0x0a, 0x01, 0x0c, 0x07, 0x03, 0x04, 0x13,
  0x02, 0x0b, 0xec, 0xf2, 0xff, 0x04, 0xdd, 0x07, 0xfa, 0x05, 0xd6, 0xfe,
  0x08, 0x06, 0xc0, 0xf8, 0x04, 0x0d, 0xd0, 0xf8, 0xf5, 0x09, 0xd4, 0xf9,
  0xfc, 0x0c, 0xdc, 0x09, 0x00, 0xf6, 0xfb, 0xfa, 0xef, 0x0f, 0x01, 0x01,
  0xed, 0x00, 0x00, 0xfb, 0xd2, 0x08, 0xf5, 0x1c, 0xfd, 0xf9, 0x03, 0xfc,
  0x07, 0xf5, 0x11, 0xfe, 0xf9, 0xfd, 0x08, 0xfb, 0xf6, 0x07, 0xf5, 0x00,
  0xfc, 0x02, 0x14, 0xf6, 0x05, 0x02, 0x03, 0xf9, 0x0b, 0xf6, 0xf2, 0xed,
  0xfd, 0xf1, 0x05, 0xfa, 0x01, 0xfb, 0x07, 0xf1, 0xcb, 0xfa, 0xf5, 0xdd,
  0x9d, 0xef, 0xf4, 0xec, 0xf5, 0xf8, 0x01, 0x05, 0xe7, 0xfa, 0x0e, 0x10,
  0xf8, 0x0c, 0x29, 0x13, 0x02, 0x07, 0x0e, 0x0b, 0x01, 0x15, 0x04, 0xd8,
  0x00, 0x11, 0x06, 0xf2, 0xc7, 0x0a, 0x06, 0xf0, 0xf8, 0x12, 0x06, 0xc6,
  0xf8, 0x03, 0x0e, 0xe6, 0x02, 0x0d, 0x04, 0x07, 0x05, 0xed, 0x05, 0x03,
  0x09, 0x00, 0x0f, 0xf9, 0xf5, 0x04, 0x02, 0xfc, 0xfb, 0xf8, 0xfd, 0xff,
  0x02, 0x0e, 0x09, 0x0d, 0x05, 0x09, 0x05, 0x06, 0x00, 0xfd, 0xe5, 0xe6,
  0xe2, 0xf9, 0x03, 0xee, 0xf4, 0x01, 0xf8, 0xf6, 0xc9, 0xf8, 0xff, 0xe2,
  0xce, 0x0f, 0xff, 0xf5, 0x01, 0x27, 0x06, 0x06, 0x04, 0x01, 0x1a, 0x12,
  0xff, 0xf6, 0x0a, 0x10, 0x05, 0x05, 0xef, 0x03, 0x02, 0x0d, 0x04, 0x05,
  0xd9, 0x11, 0x0a, 0xfe, 0xcb, 0x0e, 0x04, 0x0e, 0xfa, 0x0a, 0x0e, 0xf4,
  0x02, 0x09, 0x07, 0xeb, 0xf0, 0x02, 0x08, 0x03, 0x07, 0xfe, 0xf3, 0x0d,
  0xfb, 0xf5, 0x11, 0x0f, 0x06, 0x0b, 0x03, 0xfc, 0x09, 0x11, 0xf4, 0xf6,
  0xea, 0x0d, 0x0a, 0xef, 0xcc, 0xfe, 0x07, 0xde, 0xe2, 0x02, 0xf0, 0xdc,
  0xb3, 0xf0, 0xfd, 0xe6, 0xee, 0x01, 0x09, 0xfe, 0xdb, 0xff, 0x00, 0xf5,
  0xea, 0x04, 0x08, 0xfd, 0xfe, 0x1d, 0xfc, 0x07, 0x04, 0xfa, 0x1d, 0x07,
  0x07, 0xfb, 0x03, 0x11, 0x01, 0xfb, 0x39, 0x00, 0x04, 0x08, 0xfb, 0x0c,
  0xd6, 0x18, 0x08, 0x07, 0xe4, 0x02, 0xf9, 0x0e, 0x06, 0x0f, 0x10, 0xfc,
  0xf4, 0x09, 0x0b, 0xe4, 0xf3, 0x09, 0x12, 0xec, 0xf4, 0xee, 0xf3, 0x03,
  0xf7, 0x0c, 0x03, 0xfc, 0xf6, 0x01, 0x16, 0xee, 0xfb, 0xf6, 0x02, 0xf6,
  0xdb, 0x03, 0x0b, 0xed, 0xae, 0x07, 0xf8, 0xf6, 0xbe, 0x05, 0xf8, 0xea,
  0xc7, 0x04, 0xf7, 0xe8, 0xe9, 0x08, 0x05, 0xee, 0x01, 0xfb, 0xfe, 0xf7,
  0x0b, 0xf7, 0xf8, 0x01, 0x00, 0xfa, 0x02, 0xfa, 0x09, 0x04, 0xe7, 0xfe,
  0x05, 0x10, 0x05, 0xf3, 0x03, 0x1b, 0x0a, 0x0e, 0x01, 0x09, 0x00, 0x07,
  0xd5, 0x09, 0x02, 0x0a, 0xf5, 0x08, 0xf8, 0xfa, 0x01, 0x06, 0x05, 0x13,
  0xf2, 0x07, 0x0b, 0xef, 0xd6, 0x08, 0x00, 0xce, 0x02, 0xf5, 0xff, 0xf2,
  0xe9, 0x0e, 0x09, 0x04, 0x02, 0x02, 0x17, 0xfe, 0xea, 0x06, 0x11, 0xf7,
  0xc9, 0x03, 0xfc, 0x03, 0xd4, 0xf4, 0x03, 0xdd, 0xdf, 0x02, 0x05, 0xfa,
  0xcf, 0xf9, 0xfe, 0x06, 0xe8, 0xfd, 0xf7, 0x01, 0xf8, 0x05, 0x06, 0x0b,
  0xf8, 0xf8, 0xfe, 0xf7, 0x08, 0xf5, 0x1a, 0xf7, 0x05, 0xf4, 0xfc, 0xf0,
  0xf9, 0xf8, 0x03, 0xf2, 0x02, 0x0b, 0x08, 0xf1, 0xea, 0xfa, 0x03, 0x11,
  0xf5, 0xff, 0xfd, 0x06, 0x0b, 0xfa, 0x06, 0x0a, 0xf2, 0xfd, 0x0b, 0x16,
  0xdb, 0x04, 0x0c, 0x07, 0xef, 0x0b, 0x1d, 0xe3, 0x00, 0x02, 0x0b, 0x00,
  0xda, 0x00, 0xf8, 0xfd, 0xfc, 0xff, 0xf4, 0x06, 0xee, 0x0e, 0xff, 0x0b,
  0xde, 0xf6, 0x11, 0x01, 0xf2, 0xfc, 0x00, 0xea, 0xed, 0x06, 0xfa, 0xf0,
  0xd9, 0x06, 0xfa, 0x08, 0x06, 0xf7, 0x01, 0x1f, 0xf7, 0xef, 0xef, 0x25,
  0x00, 0xfc, 0xf7, 0x1f, 0xf7, 0xfb, 0xff, 0x06, 0xf9, 0xfc, 0x03, 0xf9,
  0x12, 0x05, 0x0c, 0x1c, 0xf9, 0x05, 0x00, 0x1a, 0x02, 0xfc, 0xed, 0x1f,
  0x04, 0xf6, 0xf0, 0x21, 0xf6, 0xfd, 0xfb, 0x14, 0x03, 0x04, 0x00, 0x07,
  0xe4, 0x0b, 0x0e, 0x04, 0xf6, 0x20, 0x27, 0xfb, 0x02, 0xf2, 0xf3, 0xff,
  0xdf, 0x04, 0xfd, 0xf7, 0xff, 0x0b, 0xf7, 0xf7, 0xf7, 0xfc, 0xf8, 0xfe,
  0xdc, 0x00, 0xf5, 0x0d, 0xdc, 0xf4, 0x01, 0xf7, 0xf8, 0xf7, 0x09, 0xf5,
  0xf4, 0xfc, 0xfd, 0x0f, 0xf8, 0x05, 0xf6, 0x1e, 0xf6, 0x07, 0xec, 0x26,
  0x0b, 0xfc, 0x05, 0x21, 0x00, 0xfe, 0xfc, 0x00, 0xfc, 0xfe, 0x02, 0x08,
  0x1b, 0xfe, 0x06, 0x0e, 0xfc, 0x0c, 0x06, 0x1f, 0xf6, 0x03, 0x0e, 0x2b,
  0xf0, 0xf3, 0xea, 0x2c, 0x01, 0xfa, 0x02, 0x35, 0xfa, 0x07, 0xf3, 0x16,
  0xcf, 0x0a, 0x07, 0x08, 0xe4, 0x0c, 0x0d, 0x10, 0x09, 0xff, 0xff, 0xfb,
  0xeb, 0x0a, 0x07, 0x00, 0xf2, 0x07, 0x05, 0xfa, 0xe0, 0x0b, 0xf5, 0xf2,
  0xed, 0x09, 0x00, 0xff, 0xe6, 0x03, 0x0d, 0x09, 0x10, 0xff, 0xf8, 0x00,
  0xfc, 0xfa, 0xf0, 0x08, 0x02, 0xf7, 0xf8, 0x20, 0x05, 0xfe, 0xf6, 0x2c,
  0x05, 0xf8, 0x08, 0x34, 0x0b, 0x0d, 0x07, 0x04, 0x0c, 0xfa, 0x0c, 0xff,
  0x2c, 0x06, 0xfd, 0x06, 0x0b, 0xf3, 0xfc, 0xfc, 0x04, 0xef, 0xf8, 0x13,
  0xf8, 0xf1, 0xeb, 0x1f, 0x09, 0x03, 0xf6, 0x28, 0xdf, 0x04, 0xf4, 0x21,
  0xc3, 0x05, 0xf4, 0x18, 0xe6, 0x27, 0xf5, 0x10, 0xed, 0xff, 0x00, 0xf2,
  0xe1, 0x01, 0x04, 0xee, 0xee, 0x09, 0x07, 0x00, 0xf2, 0xfa, 0x04, 0x00,
  0x08, 0x09, 0xf3, 0x07, 0xfd, 0xfd, 0x06, 0xff, 0x04, 0xfc, 0xf6, 0xf5,
  0xf5, 0xf9, 0xfc, 0x09, 0xf6, 0x06, 0xfc, 0x05, 0x09, 0xfd, 0x04, 0x0a,
  0x0e, 0xfb, 0x04, 0x05, 0xf4, 0xfe, 0x02, 0x1a, 0xfb, 0x08, 0xfe, 0x12,
  0x35, 0x04, 0x00, 0x0a, 0x00, 0xfc, 0xfa, 0x01, 0x00, 0xf6, 0x00, 0x02,
  0xee, 0xe4, 0xec, 0xf9, 0xf3, 0x10, 0xf8, 0x03, 0xe4, 0xf6, 0xf2, 0xf5,
  0xbe, 0x0e, 0x02, 0x00, 0xd0, 0x15, 0xf6, 0x08, 0xd7, 0x09, 0x08, 0xfb,
  0xd4, 0xfd, 0x02, 0xf2, 0xd3, 0x01, 0x04, 0x01, 0x02, 0xfb, 0xf6, 0xf5,
  0x00, 0x04, 0x06, 0x02, 0xfe, 0xf7, 0x0b, 0x07, 0xfe, 0xff, 0x0a, 0xfe,
  0x08, 0x0e, 0xee, 0x05, 0x00, 0xf7, 0xfc, 0x16, 0x0a, 0x0b, 0x01, 0xf8,
  0xfd, 0x04, 0x06, 0xfc, 0x06, 0xfc, 0xf4, 0xd8, 0xfe, 0xfb, 0xf0, 0x01,
  0x3d, 0xfb, 0xf8, 0x06, 0xfc, 0xf7, 0x05, 0x11, 0x07, 0xf8, 0xf5, 0x07,
  0xff, 0xf6, 0xff, 0x13, 0x0f, 0xfd, 0xec, 0x0e, 0xfa, 0xf0, 0xf3, 0x04,
  0xca, 0x08, 0xfd, 0x09, 0xdd, 0x09, 0x07, 0xf3, 0xc4, 0xfd, 0x07, 0xf7,
  0xea, 0x0a, 0x0e, 0xdf, 0xf0, 0xfe, 0x10, 0xe7, 0xf2, 0xfd, 0xfb, 0x03,
  0x07, 0x06, 0x00, 0x04, 0xfb, 0xf3, 0x07, 0xfa, 0x0b, 0x07, 0xf8, 0x04,
  0xfd, 0xf4, 0x08, 0x08, 0xfb, 0xfe, 0x0c, 0x03, 0xf7, 0x02, 0x02, 0xf5,
  0x02, 0xfd, 0x00, 0xf3, 0xfd, 0x08, 0xf8, 0xff, 0xf9, 0xf5, 0xef, 0xfb,
  0x18, 0xfa, 0xfb, 0x0c, 0x0d, 0xef, 0xfd, 0xfe, 0x0c, 0x00, 0xf3, 0xf1,
  0x15, 0xee, 0xe9, 0xf5, 0xf9, 0xf7, 0xf4, 0xf9, 0xfb, 0x04, 0x05, 0x0f,
  0x05, 0x13, 0xfb, 0xfc, 0xdd, 0xf8, 0x06, 0x00, 0xe9, 0x0e, 0xfe, 0xf4,
  0x00, 0x03, 0xfd, 0xdb, 0xf5, 0xff, 0xfd, 0xf6, 0x1e, 0xf3, 0x13, 0x01,
  0x01, 0xfa, 0xfe, 0x07, 0x04, 0xf4, 0xff, 0x03, 0x0e, 0x06, 0xfe, 0xf3,
  0x02, 0xf3, 0x03, 0x04, 0xf9, 0x04, 0x08, 0x01, 0x03, 0x00, 0xf5, 0x04,
  0x03, 0x06, 0xf6, 0xf9, 0xff, 0xfb, 0xfc, 0x06, 0xfc, 0xf3, 0xf7, 0x06,
  0xfa, 0xff, 0xeb, 0x06, 0x05, 0xf7, 0x00, 0xff, 0xf5, 0x01, 0x01, 0xfc,
  0xfb, 0xf6, 0x03, 0xfa, 0xf8, 0xf7, 0x04, 0x00, 0x0a, 0xfb, 0xf0, 0xe9,
  0xf8, 0x08, 0x01, 0xfa, 0x04, 0x00, 0xf6, 0xf3, 0x0c, 0x00, 0xf9, 0xf1,
  0x0e, 0x06, 0x09, 0xf9, 0x04, 0x08, 0x02, 0xfb, 0x0e, 0xfb, 0xfe, 0xfe,
  0x07, 0xfb, 0x03, 0xff, 0x09, 0xf6, 0x01, 0xf8, 0x21, 0xf3, 0x05, 0xea,
  0x0f, 0xff, 0xf9, 0xf6, 0x1b, 0xff, 0xed, 0xf4, 0x0d, 0xfc, 0xf6, 0x02,
  0x00, 0x05, 0x02, 0xf9, 0xfc, 0xf5, 0x12, 0xf2, 0x01, 0xff, 0x11, 0x03,
  0xff, 0x01, 0x1c, 0x00, 0xff, 0x06, 0x07, 0xff, 0xf8, 0xff, 0x0c, 0x06,
  0x08, 0x00, 0x10, 0xf8, 0x04, 0xf2, 0xf6, 0x05, 0xf5, 0xff, 0x06, 0xfc,
  0x05, 0x00, 0x07, 0xfd, 0x16, 0x05, 0x06, 0x01, 0x1a, 0xf9, 0x03, 0xfa,
  0xf7, 0x03, 0xf8, 0x07, 0x0e, 0xf4, 0x00, 0x03, 0xfb, 0x01, 0x02, 0x01,
  0x08, 0xfb, 0x06, 0x06, 0x09, 0xff, 0x07, 0xff, 0x18, 0x0a, 0x03, 0x01,
  0x13, 0xf1, 0x05, 0x06, 0x0e, 0xfc, 0x0a, 0x06, 0x07, 0xfd, 0xfe, 0xfb,
  0x02, 0xf7, 0x0f, 0xff, 0x02, 0x04, 0x27, 0xfd, 0x07, 0xfe, 0x24, 0x00,
  0xf7, 0xfb, 0x35, 0x04, 0x04, 0xf3, 0x2d, 0xf6, 0x02, 0xf5, 0x2d, 0x07,
  0xf6, 0xfa, 0x16, 0xf5, 0xff, 0x08, 0xf9, 0xf5, 0x0e, 0xf7, 0xf4, 0x02,
  0xfe, 0x06, 0xff, 0x05, 0x23, 0x00, 0xf5, 0xe9, 0xc2, 0xfe, 0xff, 0xff,
  0x04, 0x00, 0x00, 0x00, 0x64, 0x00, 0x00, 0x00, 0x04, 0xc4, 0x65, 0x1c,
  0x49, 0xb5, 0xc2, 0xd3, 0x1c, 0xfb, 0x0e, 0x43, 0x34, 0xb0, 0x09, 0xc3,
  0x05, 0x38, 0xee, 0x36, 0xcc, 0x0f, 0xac, 0x35, 0xc1, 0x2a, 0x3c, 0xd5,
  0x34, 0x31, 0x95, 0x13, 0xaa, 0xf2, 0xb7, 0xda, 0x67, 0xd5, 0x18, 0xce,
  0xff, 0xd5, 0xff, 0x1f, 0xfd, 0x45, 0x2f, 0xbd, 0xf6, 0xe3, 0x8f, 0x27,
  0xb5, 0x22, 0xf2, 0x4f, 0x30, 0x2b, 0x49, 0x11, 0x0f, 0xbe, 0xda, 0x32,
  0xf9, 0x2f, 0x41, 0x16, 0x20, 0xdb, 0xfc, 0x24, 0x7f, 0xac, 0x14, 0xaa,
  0xe6, 0x20, 0xae, 0xe7, 0x32, 0x28, 0xf7, 0xc0, 0x27, 0x1c, 0x98, 0x1f,
  0xab, 0xcb, 0x99, 0x24, 0xad, 0xd6, 0xc9, 0x4e, 0x1b, 0x10, 0x53, 0xb3,
  0x32, 0xff, 0xff, 0xff, 0x04, 0x00, 0x00, 0x00, 0x28, 0x00, 0x00, 0x00,
  0xfe, 0x00, 0x00, 0x00, 0xc9, 0x01, 0x00, 0x00, 0x31, 0xfe, 0xff, 0xff,
  0xec, 0xfe, 0xff, 0xff, 0x8c, 0xfe, 0xff, 0xff, 0x6d, 0xff, 0xff, 0xff,
  0x7e, 0xff, 0xff, 0xff, 0xe0, 0x01, 0x00, 0x00, 0xcc, 0x01, 0x00, 0x00,
  0x3a, 0xfe, 0xff, 0xff, 0x66, 0xff, 0xff, 0xff, 0x04, 0x00, 0x00, 0x00,
  0x64, 0x00, 0x00, 0x00, 0x19, 0x27, 0xdc, 0xc4, 0xb1, 0x08, 0xfe, 0x0f,
  0x32, 0x00, 0x5f, 0x0f, 0xf5, 0x81, 0x40, 0xfe, 0xf9, 0x2a, 0x61, 0x2b,
  0x14, 0xe2, 0x2b, 0x5f, 0x53, 0x2b, 0x2f, 0xd8, 0x11, 0x3b, 0xa4, 0xfa,
  0x5d, 0x6f, 0x09, 0x0d, 0xc6, 0xae, 0xdd, 0xfc, 0x2e, 0xd0, 0x31, 0xee,
  0x42, 0x60, 0x1b, 0x2c, 0xff, 0x4d, 0x1d, 0x59, 0xeb, 0xa8, 0x1a, 0xac,
  0xc5, 0x2d, 0x67, 0xa9, 0x04, 0xbb, 0x1d, 0xce, 0x15, 0xb6, 0xdf, 0xf7,
  0x04, 0xd3, 0x47, 0x17, 0xd8, 0x1c, 0xed, 0x10, 0x2f, 0x49, 0x67, 0xa4,
  0xf8, 0xdc, 0xec, 0x16, 0x0b, 0xea, 0x35, 0xd2, 0xc9, 0xe7, 0xd2, 0xa9,
  0x79, 0x6b, 0xc4, 0x21, 0xff, 0xad, 0xc2, 0x1b, 0xd6, 0xff, 0xff, 0xff,
  0x04, 0x00, 0x00, 0x00, 0x0a, 0x00, 0x00, 0x00, 0xb4, 0xe7, 0x60, 0x61,
  0x73, 0x81, 0xf3, 0x99, 0x2c, 0x3e, 0x00, 0x00, 0xee, 0xff, 0xff, 0xff,
  0x04, 0x00, 0x00, 0x00, 0x04, 0x00, 0x00, 0x00, 0x9a, 0xff, 0xff, 0xff,
  0x00, 0x00, 0x06, 0x00, 0x08, 0x00, 0x04, 0x00, 0x06, 0x00, 0x00, 0x00,
  0x04, 0x00, 0x00, 0x00, 0x08, 0x00, 0x00, 0x00, 0xff, 0xff, 0xff, 0xff,
  0x98, 0x04, 0x00, 0x00, 0x60, 0xf1, 0xff, 0xff, 0x64, 0xf1, 0xff, 0xff,
  0x0f, 0x00, 0x00, 0x00, 0x4d, 0x4c, 0x49, 0x52, 0x20, 0x43, 0x6f, 0x6e,
  0x76, 0x65, 0x72, 0x74, 0x65, 0x64, 0x2e, 0x00, 0x01, 0x00, 0x00, 0x00,
  0x14, 0x00, 0x00, 0x00, 0x00, 0x00, 0x0e, 0x00, 0x18, 0x00, 0x14, 0x00,
  0x10, 0x00, 0x0c, 0x00, 0x08, 0x00, 0x04, 0x00, 0x0e, 0x00, 0x00, 0x00,
  0x14, 0x00, 0x00, 0x00, 0x1c, 0x00, 0x00, 0x00, 0x60, 0x02, 0x00, 0x00,
  0x64, 0x02, 0x00, 0x00, 0x68, 0x02, 0x00, 0x00, 0x04, 0x00, 0x00, 0x00,
  0x6d, 0x61, 0x69, 0x6e, 0x00, 0x00, 0x00, 0x00, 0x09, 0x00, 0x00, 0x00,
  0xf8, 0x01, 0x00, 0x00, 0x94, 0x01, 0x00, 0x00, 0x3c, 0x01, 0x00, 0x00,
  0x14, 0x01, 0x00, 0x00, 0xd0, 0x00, 0x00, 0x00, 0x98, 0x00, 0x00, 0x00,
  0x60, 0x00, 0x00, 0x00, 0x28, 0x00, 0x00, 0x00, 0x04, 0x00, 0x00, 0x00,
  0x0e, 0xff, 0xff, 0xff, 0x0c, 0x00, 0x00, 0x00, 0x10, 0x00, 0x00, 0x00,
  0x04, 0x00, 0x00, 0x00, 0x01, 0x00, 0x00, 0x00, 0x14, 0x00, 0x00, 0x00,
  0x01, 0x00, 0x00, 0x00, 0x13, 0x00, 0x00, 0x00, 0xba, 0xfe, 0xff, 0xff,
  0x14, 0x00, 0x00, 0x00, 0x00, 0x00, 0x00, 0x08, 0x10, 0x00, 0x00, 0x00,
  0x14, 0x00, 0x00, 0x00, 0x03, 0x00, 0x00, 0x00, 0x18, 0xf2, 0xff, 0xff,
  0x01, 0x00, 0x00, 0x00, 0x13, 0x00, 0x00, 0x00, 0x03, 0x00, 0x00, 0x00,
  0x12, 0x00, 0x00, 0x00, 0x03, 0x00, 0x00, 0x00, 0x02, 0x00, 0x00, 0x00,
  0xee, 0xfe, 0xff, 0xff, 0x14, 0x00, 0x00, 0x00, 0x00, 0x00, 0x00, 0x08,
  0x10, 0x00, 0x00, 0x00, 0x14, 0x00, 0x00, 0x00, 0x03, 0x00, 0x00, 0x00,
  0x4c, 0xf2, 0xff, 0xff, 0x01, 0x00, 0x00, 0x00, 0x12, 0x00, 0x00, 0x00,
  0x03, 0x00, 0x00, 0x00, 0x11, 0x00, 0x00, 0x00, 0x04, 0x00, 0x00, 0x00,
  0xff, 0xff, 0xff, 0xff, 0x22, 0xff, 0xff, 0xff, 0x14, 0x00, 0x00, 0x00,
  0x00, 0x00, 0x00, 0x08, 0x10, 0x00, 0x00, 0x00, 0x14, 0x00, 0x00, 0x00,
  0x03, 0x00, 0x00, 0x00, 0x80, 0xf2, 0xff, 0xff, 0x01, 0x00, 0x00, 0x00,
  0x11, 0x00, 0x00, 0x00, 0x03, 0x00, 0x00, 0x00, 0x10, 0x00, 0x00, 0x00,
  0x06, 0x00, 0x00, 0x00, 0x05, 0x00, 0x00, 0x00, 0x56, 0xff, 0xff, 0xff,
  0x14, 0x00, 0x00, 0x00, 0x00, 0x00, 0x00, 0x08, 0x10, 0x00, 0x00, 0x00,
  0x14, 0x00, 0x00, 0x00, 0x03, 0x00, 0x00, 0x00, 0xb4, 0xf2, 0xff, 0xff,
  0x01, 0x00, 0x00, 0x00, 0x10, 0x00, 0x00, 0x00, 0x03, 0x00, 0x00, 0x00,
  0x0f, 0x00, 0x00, 0x00, 0x07, 0x00, 0x00, 0x00, 0xff, 0xff, 0xff, 0xff,
  0x00, 0x00, 0x0a, 0x00, 0x10, 0x00, 0x0c, 0x00, 0x08, 0x00, 0x04, 0x00,
  0x0a, 0x00, 0x00, 0x00, 0x0c, 0x00, 0x00, 0x00, 0x10, 0x00, 0x00, 0x00,
  0x02, 0x00, 0x00, 0x00, 0x01, 0x00, 0x00, 0x00, 0x0f, 0x00, 0x00, 0x00,
  0x02, 0x00, 0x00, 0x00, 0x0e, 0x00, 0x00, 0x00, 0x01, 0x00, 0x00, 0x00,
  0xba, 0xff, 0xff, 0xff, 0x14, 0x00, 0x00, 0x00, 0x00, 0x00, 0x00, 0x01,
  0x20, 0x00, 0x00, 0x00, 0x24, 0x00, 0x00, 0x00, 0x01, 0x00, 0x00, 0x00,
  0xac, 0xff, 0xff, 0xff, 0x00, 0x00, 0x00, 0x01, 0x01, 0x00, 0x00, 0x00,
  0x01, 0x00, 0x00, 0x00, 0x00, 0x00, 0x00, 0x01, 0x01, 0x00, 0x00, 0x00,
  0x0e, 0x00, 0x00, 0x00, 0x03, 0x00, 0x00, 0x00, 0x0d, 0x00, 0x00, 0x00,
  0x09, 0x00, 0x00, 0x00, 0x08, 0x00, 0x00, 0x00, 0x00, 0x00, 0x0e, 0x00,
  0x18, 0x00, 0x14, 0x00, 0x10, 0x00, 0x0c, 0x00, 0x0b, 0x00, 0x04, 0x00,
  0x0e, 0x00, 0x00, 0x00, 0x20, 0x00, 0x00, 0x00, 0x00, 0x00, 0x00, 0x01,
  0x2c, 0x00, 0x00, 0x00, 0x30, 0x00, 0x00, 0x00, 0x01, 0x00, 0x00, 0x00,
  0x0c, 0x00, 0x14, 0x00, 0x13, 0x00, 0x0c, 0x00, 0x08, 0x00, 0x07, 0x00,
  0x0c, 0x00, 0x00, 0x00, 0x00, 0x00, 0x00, 0x01, 0x01, 0x00, 0x00, 0x00,
  0x01, 0x00, 0x00, 0x00, 0x00, 0x00, 0x00, 0x01, 0x01, 0x00, 0x00, 0x00,
  0x0d, 0x00, 0x00, 0x00, 0x03, 0x00, 0x00, 0x00, 0x0c, 0x00, 0x00, 0x00,
  0x0b, 0x00, 0x00, 0x00, 0x0a, 0x00, 0x00, 0x00, 0x00, 0x00, 0x0e, 0x00,
  0x16, 0x00, 0x00, 0x00, 0x10, 0x00, 0x0c, 0x00, 0x0b, 0x00, 0x04, 0x00,
  0x0e, 0x00, 0x00, 0x00, 0x20, 0x00, 0x00, 0x00, 0x00, 0x00, 0x00, 0x05,
  0x30, 0x00, 0x00, 0x00, 0x34, 0x00, 0x00, 0x00, 0x00, 0x00, 0x0e, 0x00,
  0x18, 0x00, 0x17, 0x00, 0x10, 0x00, 0x0c, 0x00, 0x08, 0x00, 0x04, 0x00,
  0x0e, 0x00, 0x00, 0x00, 0x04, 0x00, 0x00, 0x00, 0x04, 0x00, 0x00, 0x00,
  0x04, 0x00, 0x00, 0x00, 0x04, 0x00, 0x00, 0x00, 0x00, 0x00, 0x00, 0x01,
  0x01, 0x00, 0x00, 0x00, 0x0c, 0x00, 0x00, 0x00, 0x01, 0x00, 0x00, 0x00,
  0x00, 0x00, 0x00, 0x00, 0x01, 0x00, 0x00, 0x00, 0x14, 0x00, 0x00, 0x00,
  0x01, 0x00, 0x00, 0x00, 0x00, 0x00, 0x00, 0x00, 0x15, 0x00, 0x00, 0x00,
  0x38, 0x0c, 0x00, 0x00, 0xcc, 0x0b, 0x00, 0x00, 0x2c, 0x0b, 0x00, 0x00,
  0xc0, 0x0a, 0x00, 0x00, 0x54, 0x0a, 0x00, 0x00, 0xc8, 0x09, 0x00, 0x00,
  0x5c, 0x09, 0x00, 0x00, 0xe8, 0x08, 0x00, 0x00, 0x44, 0x08, 0x00, 0x00,
  0xa8, 0x07, 0x00, 0x00, 0xd4, 0x06, 0x00, 0x00, 0x08, 0x06, 0x00, 0x00,
  0x6c, 0x05, 0x00, 0x00, 0x78, 0x04, 0x00, 0x00, 0x84, 0x03, 0x00, 0x00,
  0x00, 0x03, 0x00, 0x00, 0x7c, 0x02, 0x00, 0x00, 0xc0, 0x01, 0x00, 0x00,
  0x3c, 0x01, 0x00, 0x00, 0x80, 0x00, 0x00, 0x00, 0x04, 0x00, 0x00, 0x00,
  0x32, 0xf4, 0xff, 0xff, 0x00, 0x00, 0x00, 0x01, 0x18, 0x00, 0x00, 0x00,
  0x20, 0x00, 0x00, 0x00, 0x3c, 0x00, 0x00, 0x00, 0x15, 0x00, 0x00, 0x00,
  0x00, 0x00, 0x00, 0x09, 0x50, 0x00, 0x00, 0x00, 0x02, 0x00, 0x00, 0x00,
  0xff, 0xff, 0xff, 0xff, 0x01, 0x00, 0x00, 0x00, 0x14, 0xf4, 0xff, 0xff,
  0x08, 0x00, 0x00, 0x00, 0x10, 0x00, 0x00, 0x00, 0x01, 0x00, 0x00, 0x00,
  0x80, 0xff, 0xff, 0xff, 0xff, 0xff, 0xff, 0xff, 0x01, 0x00, 0x00, 0x00,
  0x00, 0x00, 0x80, 0x3b, 0x19, 0x00, 0x00, 0x00, 0x53, 0x74, 0x61, 0x74,
  0x65, 0x66, 0x75, 0x6c, 0x50, 0x61, 0x72, 0x74, 0x69, 0x74, 0x69, 0x6f,
  0x6e, 0x65, 0x64, 0x43, 0x61, 0x6c, 0x6c, 0x3a, 0x30, 0x00, 0x00, 0x00,
  0x02, 0x00, 0x00, 0x00, 0x01, 0x00, 0x00, 0x00, 0x01, 0x00, 0x00, 0x00,
  0xaa, 0xf4, 0xff, 0xff, 0x00, 0x00, 0x00, 0x01, 0x18, 0x00, 0x00, 0x00,
  0x20, 0x00, 0x00, 0x00, 0x40, 0x00, 0x00, 0x00, 0x14, 0x00, 0x00, 0x00,
  0x00, 0x00, 0x00, 0x09, 0x90, 0x00, 0x00, 0x00, 0x02, 0x00, 0x00, 0x00,
  0xff, 0xff, 0xff, 0xff, 0x01, 0x00, 0x00, 0x00, 0x8c, 0xf4, 0xff, 0xff,
  0x08, 0x00, 0x00, 0x00, 0x14, 0x00, 0x00, 0x00, 0x01, 0x00, 0x00, 0x00,
  0x8c, 0xff, 0xff, 0xff, 0xff, 0xff, 0xff, 0xff, 0x00, 0x00, 0x00, 0x00,
  0x01, 0x00, 0x00, 0x00, 0x8f, 0x81, 0x9c, 0x3e, 0x55, 0x00, 0x00, 0x00,
  0x73, 0x65, 0x71, 0x75, 0x65, 0x6e, 0x74, 0x69, 0x61, 0x6c, 0x5f, 0x31,
  0x2f, 0x64, 0x65, 0x6e, 0x73, 0x65, 0x5f, 0x36, 0x2f, 0x42, 0x69, 0x61,
  0x73, 0x41, 0x64, 0x64, 0x3b, 0x73, 0x65, 0x71, 0x75, 0x65, 0x6e, 0x74,
  0x69, 0x61, 0x6c, 0x5f, 0x31, 0x2f, 0x64, 0x65, 0x6e, 0x73, 0x65, 0x5f,
  0x37, 0x2f, 0x4d, 0x61, 0x74, 0x4d, 0x75, 0x6c, 0x3b, 0x73, 0x65, 0x71,
  0x75, 0x65, 0x6e, 0x74, 0x69, 0x61, 0x6c, 0x5f, 0x31, 0x2f, 0x64, 0x65,
  0x6e, 0x73, 0x65, 0x5f, 0x37, 0x2f, 0x42, 0x69, 0x61, 0x73, 0x41, 0x64,
  0x64, 0x00, 0x00, 0x00, 0x02, 0x00, 0x00, 0x00, 0x01, 0x00, 0x00, 0x00,
  0x01, 0x00, 0x00, 0x00, 0x62, 0xf5, 0xff, 0xff, 0x00, 0x00, 0x00, 0x01,
  0x18, 0x00, 0x00, 0x00, 0x20, 0x00, 0x00, 0x00, 0x40, 0x00, 0x00, 0x00,
  0x13, 0x00, 0x00, 0x00, 0x00, 0x00, 0x00, 0x09, 0x58, 0x00, 0x00, 0x00,
  0x02, 0x00, 0x00, 0x00, 0xff, 0xff, 0xff, 0xff, 0x0a, 0x00, 0x00, 0x00,
  0x44, 0xf5, 0xff, 0xff, 0x08, 0x00, 0x00, 0x00, 0x14, 0x00, 0x00, 0x00,
  0x01, 0x00, 0x00, 0x00, 0x04, 0x00, 0x00, 0x00, 0x00, 0x00, 0x00, 0x00,
  0x00, 0x00, 0x00, 0x00, 0x01, 0x00, 0x00, 0x00, 0xd2, 0xbe, 0x30, 0x3e,
  0x1c, 0x00, 0x00, 0x00, 0x73, 0x65, 0x71, 0x75, 0x65, 0x6e, 0x74, 0x69,
  0x61, 0x6c, 0x5f, 0x31, 0x2f, 0x64, 0x65, 0x6e, 0x73, 0x65, 0x5f, 0x36,
  0x2f, 0x4d, 0x61, 0x74, 0x4d, 0x75, 0x6c, 0x31, 0x00, 0x00, 0x00, 0x00,
  0x02, 0x00, 0x00, 0x00, 0x01, 0x00, 0x00, 0x00, 0x0a, 0x00, 0x00, 0x00,
  0xe2, 0xf5, 0xff, 0xff, 0x00, 0x00, 0x00, 0x01, 0x18, 0x00, 0x00, 0x00,
  0x20, 0x00, 0x00, 0x00, 0x40, 0x00, 0x00, 0x00, 0x12, 0x00, 0x00, 0x00,
  0x00, 0x00, 0x00, 0x09, 0x90, 0x00, 0x00, 0x00, 0x02, 0x00, 0x00, 0x00,
  0xff, 0xff, 0xff, 0xff, 0x0a, 0x00, 0x00, 0x00, 0xc4, 0xf5, 0xff, 0xff,
  0x08, 0x00, 0x00, 0x00, 0x14, 0x00, 0x00, 0x00, 0x01, 0x00, 0x00, 0x00,
  0xfd, 0xff, 0xff, 0xff, 0xff, 0xff, 0xff, 0xff, 0x00, 0x00, 0x00, 0x00,
  0x01, 0x00, 0x00, 0x00, 0x8e, 0x1e, 0x57, 0x3d, 0x55, 0x00, 0x00, 0x00,
  0x73, 0x65, 0x71, 0x75, 0x65, 0x6e, 0x74, 0x69, 0x61, 0x6c, 0x5f, 0x31,
  0x2f, 0x64, 0x65, 0x6e, 0x73, 0x65, 0x5f, 0x34, 0x2f, 0x42, 0x69, 0x61,
  0x73, 0x41, 0x64, 0x64, 0x3b, 0x73, 0x65, 0x71, 0x75, 0x65, 0x6e, 0x74,
  0x69, 0x61, 0x6c, 0x5f, 0x31, 0x2f, 0x64, 0x65, 0x6e, 0x73, 0x65, 0x5f,
  0x35, 0x2f, 0x4d, 0x61, 0x74, 0x4d, 0x75, 0x6c, 0x3b, 0x73, 0x65, 0x71,
  0x75, 0x65, 0x6e, 0x74, 0x69, 0x61, 0x6c, 0x5f, 0x31, 0x2f, 0x64, 0x65,
  0x6e, 0x73, 0x65, 0x5f, 0x35, 0x2f, 0x42, 0x69, 0x61, 0x73, 0x41, 0x64,
  0x64, 0x00, 0x00, 0x00, 0x02, 0x00, 0x00, 0x00, 0x01, 0x00, 0x00, 0x00,
  0x0a, 0x00, 0x00, 0x00, 0x9a, 0xf6, 0xff, 0xff, 0x00, 0x00, 0x00, 0x01,
  0x18, 0x00, 0x00, 0x00, 0x20, 0x00, 0x00, 0x00, 0x40, 0x00, 0x00, 0x00,
  0x11, 0x00, 0x00, 0x00, 0x00, 0x00, 0x00, 0x09, 0x58, 0x00, 0x00, 0x00,
  0x02, 0x00, 0x00, 0x00, 0xff, 0xff, 0xff, 0xff, 0x0a, 0x00, 0x00, 0x00,
  0x7c, 0xf6, 0xff, 0xff, 0x08, 0x00, 0x00, 0x00, 0x14, 0x00, 0x00, 0x00,
  0x01, 0x00, 0x00, 0x00, 0x08, 0x00, 0x00, 0x00, 0x00, 0x00, 0x00, 0x00,
  0x00, 0x00, 0x00, 0x00, 0x01, 0x00, 0x00, 0x00, 0x4b, 0x77, 0x93, 0x3c,
  0x1c, 0x00, 0x00, 0x00, 0x73, 0x65, 0x71, 0x75, 0x65, 0x6e, 0x74, 0x69,
  0x61, 0x6c, 0x5f, 0x31, 0x2f, 0x64, 0x65, 0x6e, 0x73, 0x65, 0x5f, 0x34,
  0x2f, 0x4d, 0x61, 0x74, 0x4d, 0x75, 0x6c, 0x32, 0x00, 0x00, 0x00, 0x00,
  0x02, 0x00, 0x00, 0x00, 0x01, 0x00, 0x00, 0x00, 0x0a, 0x00, 0x00, 0x00,
  0x1a, 0xf7, 0xff, 0xff, 0x00, 0x00, 0x00, 0x01, 0x18, 0x00, 0x00, 0x00,
  0x20, 0x00, 0x00, 0x00, 0x40, 0x00, 0x00, 0x00, 0x10, 0x00, 0x00, 0x00,
  0x00, 0x00, 0x00, 0x09, 0x58, 0x00, 0x00, 0x00, 0x02, 0x00, 0x00, 0x00,
  0xff, 0xff, 0xff, 0xff, 0x98, 0x04, 0x00, 0x00, 0xfc, 0xf6, 0xff, 0xff,
  0x08, 0x00, 0x00, 0x00, 0x14, 0x00, 0x00, 0x00, 0x01, 0x00, 0x00, 0x00,
  0x80, 0xff, 0xff, 0xff, 0xff, 0xff, 0xff, 0xff, 0x00, 0x00, 0x00, 0x00,
  0x01, 0x00, 0x00, 0x00, 0x6d, 0xd9, 0x0e, 0x3b, 0x1e, 0x00, 0x00, 0x00,
  0x73, 0x65, 0x71, 0x75, 0x65, 0x6e, 0x74, 0x69, 0x61, 0x6c, 0x5f, 0x31,
  0x2f, 0x66, 0x6c, 0x61, 0x74, 0x74, 0x65, 0x6e, 0x5f, 0x31, 0x2f, 0x52,
  0x65, 0x73, 0x68, 0x61, 0x70, 0x65, 0x00, 0x00, 0x02, 0x00, 0x00, 0x00,
  0x01, 0x00, 0x00, 0x00, 0x98, 0x04, 0x00, 0x00, 0x9a, 0xf7, 0xff, 0xff,
  0x00, 0x00, 0x00, 0x01, 0x18, 0x00, 0x00, 0x00, 0x28, 0x00, 0x00, 0x00,
  0x44, 0x00, 0x00, 0x00, 0x0f, 0x00, 0x00, 0x00, 0x00, 0x00, 0x00, 0x09,
  0xc0, 0x00, 0x00, 0x00, 0x04, 0x00, 0x00, 0x00, 0xff, 0xff, 0xff, 0xff,
  0x0e, 0x00, 0x00, 0x00, 0x15, 0x00, 0x00, 0x00, 0x04, 0x00, 0x00, 0x00,
  0x84, 0xf7, 0xff, 0xff, 0x08, 0x00, 0x00, 0x00, 0x10, 0x00, 0x00, 0x00,
  0x01, 0x00, 0x00, 0x00, 0x80, 0xff, 0xff, 0xff, 0xff, 0xff, 0xff, 0xff,
  0x01, 0x00, 0x00, 0x00, 0x6d, 0xd9, 0x0e, 0x3b, 0x82, 0x00, 0x00, 0x00,
  0x73, 0x65, 0x71, 0x75, 0x65, 0x6e, 0x74, 0x69, 0x61, 0x6c, 0x5f, 0x31,
  0x2f, 0x63, 0x6f, 0x6e, 0x76, 0x32, 0x64, 0x5f, 0x33, 0x2f, 0x52, 0x65,
  0x6c, 0x75, 0x3b, 0x73, 0x65, 0x71, 0x75, 0x65, 0x6e, 0x74, 0x69, 0x61,
  0x6c, 0x5f, 0x31, 0x2f, 0x63, 0x6f, 0x6e, 0x76, 0x32, 0x64, 0x5f, 0x33,
  0x2f, 0x42, 0x69, 0x61, 0x73, 0x41, 0x64, 0x64, 0x3b, 0x73, 0x65, 0x71,
  0x75, 0x65, 0x6e, 0x74, 0x69, 0x61, 0x6c, 0x5f, 0x31, 0x2f, 0x63, 0x6f,
  0x6e, 0x76, 0x32, 0x64, 0x5f, 0x33, 0x2f, 0x43, 0x6f, 0x6e, 0x76, 0x32,
  0x44, 0x3b, 0x73, 0x65, 0x71, 0x75, 0x65, 0x6e, 0x74, 0x69, 0x61, 0x6c,
  0x5f, 0x31, 0x2f, 0x63, 0x6f, 0x6e, 0x76, 0x32, 0x64, 0x5f, 0x33, 0x2f,
  0x42, 0x69, 0x61, 0x73, 0x41, 0x64, 0x64, 0x2f, 0x52, 0x65, 0x61, 0x64,
  0x56, 0x61, 0x72, 0x69, 0x61, 0x62, 0x6c, 0x65, 0x4f, 0x70, 0x00, 0x00,
  0x04, 0x00, 0x00, 0x00, 0x01, 0x00, 0x00, 0x00, 0x0e, 0x00, 0x00, 0x00,
  0x15, 0x00, 0x00, 0x00, 0x04, 0x00, 0x00, 0x00, 0x8a, 0xf8, 0xff, 0xff,
  0x00, 0x00, 0x00, 0x01, 0x18, 0x00, 0x00, 0x00, 0x28, 0x00, 0x00, 0x00,
  0x44, 0x00, 0x00, 0x00, 0x0e, 0x00, 0x00, 0x00, 0x00, 0x00, 0x00, 0x09,
  0xc0, 0x00, 0x00, 0x00, 0x04, 0x00, 0x00, 0x00, 0xff, 0xff, 0xff, 0xff,
  0x11, 0x00, 0x00, 0x00, 0x18, 0x00, 0x00, 0x00, 0x08, 0x00, 0x00, 0x00,
  0x74, 0xf8, 0xff, 0xff, 0x08, 0x00, 0x00, 0x00, 0x10, 0x00, 0x00, 0x00,
  0x01, 0x00, 0x00, 0x00, 0x80, 0xff, 0xff, 0xff, 0xff, 0xff, 0xff, 0xff,
  0x01, 0x00, 0x00, 0x00, 0x33, 0x35, 0xc8, 0x3a, 0x82, 0x00, 0x00, 0x00,
  0x73, 0x65, 0x71, 0x75, 0x65, 0x6e, 0x74, 0x69, 0x61, 0x6c, 0x5f, 0x31,
  0x2f, 0x63, 0x6f, 0x6e, 0x76, 0x32, 0x64, 0x5f, 0x32, 0x2f, 0x52, 0x65,
  0x6c, 0x75, 0x3b, 0x73, 0x65, 0x71, 0x75, 0x65, 0x6e, 0x74, 0x69, 0x61,
  0x6c, 0x5f, 0x31, 0x2f, 0x63, 0x6f, 0x6e, 0x76, 0x32, 0x64, 0x5f, 0x32,
  0x2f, 0x42, 0x69, 0x61, 0x73, 0x41, 0x64, 0x64, 0x3b, 0x73, 0x65, 0x71,
  0x75, 0x65, 0x6e, 0x74, 0x69, 0x61, 0x6c, 0x5f, 0x31, 0x2f, 0x63, 0x6f,
  0x6e, 0x76, 0x32, 0x64, 0x5f, 0x32, 0x2f, 0x43, 0x6f, 0x6e, 0x76, 0x32,
  0x44, 0x3b, 0x73, 0x65, 0x71, 0x75, 0x65, 0x6e, 0x74, 0x69, 0x61, 0x6c,
  0x5f, 0x31, 0x2f, 0x63, 0x6f, 0x6e, 0x76, 0x32, 0x64, 0x5f, 0x32, 0x2f,
  0x42, 0x69, 0x61, 0x73, 0x41, 0x64, 0x64, 0x2f, 0x52, 0x65, 0x61, 0x64,
  0x56, 0x61, 0x72, 0x69, 0x61, 0x62, 0x6c, 0x65, 0x4f, 0x70, 0x00, 0x00,
  0x04, 0x00, 0x00, 0x00, 0x01, 0x00, 0x00, 0x00, 0x11, 0x00, 0x00, 0x00,
  0x18, 0x00, 0x00, 0x00, 0x08, 0x00, 0x00, 0x00, 0x7a, 0xf9, 0xff, 0xff,
  0x00, 0x00, 0x00, 0x01, 0x18, 0x00, 0x00, 0x00, 0x28, 0x00, 0x00, 0x00,
  0x44, 0x00, 0x00, 0x00, 0x0d, 0x00, 0x00, 0x00, 0x00, 0x00, 0x00, 0x09,
  0x68, 0x00, 0x00, 0x00, 0x04, 0x00, 0x00, 0x00, 0xff, 0xff, 0xff, 0xff,
  0x12, 0x00, 0x00, 0x00, 0x19, 0x00, 0x00, 0x00, 0x01, 0x00, 0x00, 0x00,
  0x64, 0xf9, 0xff, 0xff, 0x08, 0x00, 0x00, 0x00, 0x10, 0x00, 0x00, 0x00,
  0x01, 0x00, 0x00, 0x00, 0x80, 0xff, 0xff, 0xff, 0xff, 0xff, 0xff, 0xff,
  0x01, 0x00, 0x00, 0x00, 0x81, 0x80, 0x80, 0x3b, 0x28, 0x00, 0x00, 0x00,
  0x73, 0x65, 0x71, 0x75, 0x65, 0x6e, 0x74, 0x69, 0x61, 0x6c, 0x5f, 0x31,
  0x2f, 0x61, 0x76, 0x65, 0x72, 0x61, 0x67, 0x65, 0x5f, 0x70, 0x6f, 0x6f,
  0x6c, 0x69, 0x6e, 0x67, 0x32, 0x64, 0x5f, 0x31, 0x2f, 0x41, 0x76, 0x67,
  0x50, 0x6f, 0x6f, 0x6c, 0x00, 0x00, 0x00, 0x00, 0x04, 0x00, 0x00, 0x00,
  0x01, 0x00, 0x00, 0x00, 0x12, 0x00, 0x00, 0x00, 0x19, 0x00, 0x00, 0x00,
  0x01, 0x00, 0x00, 0x00, 0x7a, 0xfa, 0xff, 0xff, 0x00, 0x00, 0x00, 0x01,
  0x14, 0x00, 0x00, 0x00, 0x84, 0x00, 0x00, 0x00, 0x0c, 0x00, 0x00, 0x00,
  0x00, 0x00, 0x00, 0x09, 0x9c, 0x00, 0x00, 0x00, 0xe4, 0xf9, 0xff, 0xff,
  0x08, 0x00, 0x00, 0x00, 0x48, 0x00, 0x00, 0x00, 0x08, 0x00, 0x00, 0x00,
  0x00, 0x00, 0x00, 0x00, 0x00, 0x00, 0x00, 0x00, 0x00, 0x00, 0x00, 0x00,
  0x00, 0x00, 0x00, 0x00, 0x00, 0x00, 0x00, 0x00, 0x00, 0x00, 0x00, 0x00,
  0x00, 0x00, 0x00, 0x00, 0x00, 0x00, 0x00, 0x00, 0x00, 0x00, 0x00, 0x00,
  0x00, 0x00, 0x00, 0x00, 0x00, 0x00, 0x00, 0x00, 0x00, 0x00, 0x00, 0x00,
  0x00, 0x00, 0x00, 0x00, 0x00, 0x00, 0x00, 0x00, 0x00, 0x00, 0x00, 0x00,
  0x00, 0x00, 0x00, 0x00, 0x08, 0x00, 0x00, 0x00, 0x99, 0x46, 0x74, 0x3a,
  0xb2, 0x80, 0xde, 0x3a, 0x7a, 0x36, 0x4a, 0x3b, 0x9e, 0xff, 0x11, 0x3b,
  0x28, 0xfc, 0x70, 0x3b, 0x51, 0x3b, 0xe0, 0x3a, 0x1d, 0xcb, 0x3b, 0x3b,
  0x98, 0xbb, 0x57, 0x3b, 0x1c, 0x00, 0x00, 0x00, 0x73, 0x65, 0x71, 0x75,
  0x65, 0x6e, 0x74, 0x69, 0x61, 0x6c, 0x5f, 0x31, 0x2f, 0x63, 0x6f, 0x6e,
  0x76, 0x32, 0x64, 0x5f, 0x32, 0x2f, 0x43, 0x6f, 0x6e, 0x76, 0x32, 0x44,
  0x00, 0x00, 0x00, 0x00, 0x04, 0x00, 0x00, 0x00, 0x08, 0x00, 0x00, 0x00,
  0x02, 0x00, 0x00, 0x00, 0x02, 0x00, 0x00, 0x00, 0x01, 0x00, 0x00, 0x00,
  0x42, 0xfb, 0xff, 0xff, 0x00, 0x00, 0x00, 0x01, 0x14, 0x00, 0x00, 0x00,
  0x88, 0x00, 0x00, 0x00, 0x0b, 0x00, 0x00, 0x00, 0x00, 0x00, 0x00, 0x02,
  0xb0, 0x00, 0x00, 0x00, 0xac, 0xfa, 0xff, 0xff, 0x08, 0x00, 0x00, 0x00,
  0x4c, 0x00, 0x00, 0x00, 0x08, 0x00, 0x00, 0x00, 0x00, 0x00, 0x00, 0x00,
  0x00, 0x00, 0x00, 0x00, 0x00, 0x00, 0x00, 0x00, 0x00, 0x00, 0x00, 0x00,
  0x00, 0x00, 0x00, 0x00, 0x00, 0x00, 0x00, 0x00, 0x00, 0x00, 0x00, 0x00,
  0x00, 0x00, 0x00, 0x00, 0x00, 0x00, 0x00, 0x00, 0x00, 0x00, 0x00, 0x00,
  0x00, 0x00, 0x00, 0x00, 0x00, 0x00, 0x00, 0x00, 0x00, 0x00, 0x00, 0x00,
  0x00, 0x00, 0x00, 0x00, 0x00, 0x00, 0x00, 0x00, 0x00, 0x00, 0x00, 0x00,
  0x00, 0x00, 0x00, 0x00, 0x08, 0x00, 0x00, 0x00, 0xd6, 0x3b, 0x75, 0x36,
  0x13, 0x60, 0xdf, 0x36, 0x7c, 0x01, 0x4b, 0x37, 0x31, 0x92, 0x12, 0x37,
  0x17, 0xee, 0x71, 0x37, 0x6e, 0x1c, 0xe1, 0x36, 0xa5, 0x87, 0x3c, 0x37,
  0x2d, 0x94, 0x58, 0x37, 0x2c, 0x00, 0x00, 0x00, 0x73, 0x65, 0x71, 0x75,
  0x65, 0x6e, 0x74, 0x69, 0x61, 0x6c, 0x5f, 0x31, 0x2f, 0x63, 0x6f, 0x6e,
  0x76, 0x32, 0x64, 0x5f, 0x32, 0x2f, 0x42, 0x69, 0x61, 0x73, 0x41, 0x64,
  0x64, 0x2f, 0x52, 0x65, 0x61, 0x64, 0x56, 0x61, 0x72, 0x69, 0x61, 0x62,
  0x6c, 0x65, 0x4f, 0x70, 0x00, 0x00, 0x00, 0x00, 0x01, 0x00, 0x00, 0x00,
  0x08, 0x00, 0x00, 0x00, 0x12, 0xfc, 0xff, 0xff, 0x00, 0x00, 0x00, 0x01,
  0x14, 0x00, 0x00, 0x00, 0x54, 0x00, 0x00, 0x00, 0x0a, 0x00, 0x00, 0x00,
  0x00, 0x00, 0x00, 0x09, 0x6c, 0x00, 0x00, 0x00, 0x7c, 0xfb, 0xff, 0xff,
  0x08, 0x00, 0x00, 0x00, 0x28, 0x00, 0x00, 0x00, 0x04, 0x00, 0x00, 0x00,
  0x00, 0x00, 0x00, 0x00, 0x00, 0x00, 0x00, 0x00, 0x00, 0x00, 0x00, 0x00,
  0x00, 0x00, 0x00, 0x00, 0x00, 0x00, 0x00, 0x00, 0x00, 0x00, 0x00, 0x00,
  0x00, 0x00, 0x00, 0x00, 0x00, 0x00, 0x00, 0x00, 0x04, 0x00, 0x00, 0x00,
  0x4a, 0x78, 0xe6, 0x3b, 0x20, 0xce, 0xb0, 0x3b, 0xdc, 0x43, 0xe8, 0x3b,
  0xae, 0x09, 0xb5, 0x3b, 0x1c, 0x00, 0x00, 0x00, 0x73, 0x65, 0x71, 0x75,
  0x65, 0x6e, 0x74, 0x69, 0x61, 0x6c, 0x5f, 0x31, 0x2f, 0x63, 0x6f, 0x6e,
  0x76, 0x32, 0x64, 0x5f, 0x33, 0x2f, 0x43, 0x6f, 0x6e, 0x76, 0x32, 0x44,
  0x00, 0x00, 0x00, 0x00, 0x04, 0x00, 0x00, 0x00, 0x04, 0x00, 0x00, 0x00,
  0x04, 0x00, 0x00, 0x00, 0x04, 0x00, 0x00, 0x00, 0x08, 0x00, 0x00, 0x00,
  0xaa, 0xfc, 0xff, 0xff, 0x00, 0x00, 0x00, 0x01, 0x14, 0x00, 0x00, 0x00,
  0x58, 0x00, 0x00, 0x00, 0x09, 0x00, 0x00, 0x00, 0x00, 0x00, 0x00, 0x02,
  0x80, 0x00, 0x00, 0x00, 0x14, 0xfc, 0xff, 0xff, 0x08, 0x00, 0x00, 0x00,
  0x2c, 0x00, 0x00, 0x00, 0x04, 0x00, 0x00, 0x00, 0x00, 0x00, 0x00, 0x00,
  0x00, 0x00, 0x00, 0x00, 0x00, 0x00, 0x00, 0x00, 0x00, 0x00, 0x00, 0x00,
